node {
  name: "global_step/Initializer/zeros"
  op: "Const"
  attr {
    key: "_class"
    value {
      list {
        s: "loc:@global_step"
      }
    }
  }
  attr {
    key: "_output_shapes"
    value {
      list {
        shape {
        }
      }
    }
  }
  attr {
    key: "dtype"
    value {
      type: DT_INT64
    }
  }
  attr {
    key: "value"
    value {
      tensor {
        dtype: DT_INT64
        tensor_shape {
        }
        int64_val: 0
      }
    }
  }
}
node {
  name: "global_step"
  op: "VariableV2"
  attr {
    key: "_class"
    value {
      list {
        s: "loc:@global_step"
      }
    }
  }
  attr {
    key: "_output_shapes"
    value {
      list {
        shape {
        }
      }
    }
  }
  attr {
    key: "container"
    value {
      s: ""
    }
  }
  attr {
    key: "dtype"
    value {
      type: DT_INT64
    }
  }
  attr {
    key: "shape"
    value {
      shape {
      }
    }
  }
  attr {
    key: "shared_name"
    value {
      s: ""
    }
  }
}
node {
  name: "global_step/Assign"
  op: "Assign"
  input: "global_step"
  input: "global_step/Initializer/zeros"
  attr {
    key: "T"
    value {
      type: DT_INT64
    }
  }
  attr {
    key: "_class"
    value {
      list {
        s: "loc:@global_step"
      }
    }
  }
  attr {
    key: "_output_shapes"
    value {
      list {
        shape {
        }
      }
    }
  }
  attr {
    key: "use_locking"
    value {
      b: true
    }
  }
  attr {
    key: "validate_shape"
    value {
      b: true
    }
  }
}
node {
  name: "global_step/read"
  op: "Identity"
  input: "global_step"
  attr {
    key: "T"
    value {
      type: DT_INT64
    }
  }
  attr {
    key: "_class"
    value {
      list {
        s: "loc:@global_step"
      }
    }
  }
  attr {
    key: "_output_shapes"
    value {
      list {
        shape {
        }
      }
    }
  }
}
node {
  name: "Const"
  op: "Const"
  device: "/device:CPU:0"
  attr {
    key: "_output_shapes"
    value {
      list {
        shape {
          dim {
            size: 256
          }
        }
      }
    }
  }
  attr {
    key: "dtype"
    value {
      type: DT_DOUBLE
    }
  }
  attr {
    key: "value"
    value {
      tensor {
        dtype: DT_DOUBLE
        tensor_shape {
          dim {
            size: 256
          }
        }
        tensor_content: "d|\365\003f\244\370\277\305\201\333\200\217\214\363?t\177\271;U\370\304\277s6H\326#\317\355\277\233\335\026V\223P\354?\364\224\371\211\336@\360?/\227|\360-\n\230?\370\317\340y\177\031\363\277\217\003Wt\321\367\312?>\353XT\314$\367\277\025G\230\3371\035\353\277a\376\"n`\265\356\277\271\377]\335;\214\363\277;\005\352\256\370|\373\277\0069\026\326d5\355\277\270\3549\030;\004\351\277*\222\335V\224\212\371?5\035\016\267*\'\314\277\010\013\0207\266x\331?\273_N\334b_\301\277\277\265\001\354Iq\367\277\313\271\260\257\371\266\350\277g\312\370LD\234\357?b[\237n\361#\372?A\344\347\010? \342?G\207gRL}\373?\350,\rA\267\230\364\277\326$\257\271W\r\362?/\227|\360-\n\230?\2006\234\305\336\362\362\277\227T,\035\024\200\362?\016\3512Y0\\\315\277\331\002\032\251gw\331\277\242\367\377U\334\000\361?\004<(\227\233\343\372\277\271\270\027c\342S\340\277\010\013\0207\266x\331?\034\020`\263@\212\371\277\254\200\362\372\036:\341\277/\254\302\240{\006\343?\242\367\377U\334\000\361?s\344\341L\215L\364?\345F\236\233\343\360\370\277\034\250\307Y\324\005\343\277\264/%\276\237\032\360?\342vi2\251\263\360\277?O\226\331C\207\341?\335\301\0167YB\333\277\004\244\304\246i\234\354\277\271\270\027c\342S\340\277\"\3349H\206\245\365?\035t\2358\270\354\343?\331\002\032\251gw\331\277c\223t\235[N\357\277,K\223&\331\035\353?\206rw\360\2710\257?{\232\205[\2331\370?\025<x\320\364\322\344?\217\003Wt\321\367\312?\025G\230\3371\035\353\277\205cM/\252\236\346?\271\270\027c\342S\340\2778\267\342\257\270P\351\277jH\317\230\253\277\364?\271\270\027c\342S\340\277,^\273\241;\332\360?\210\354?\324\354\327\366\277\337\220\372\214\325\013\365\277#\302\250\355YM\361?\256\233W\355\311\224\245?\326$\257\271W\r\362?#\334=\376\347\331\360\277\005\200\306\371\340\214\273\277\004<(\227\233\343\372\277\255\025D*\032\323\341\2776OF\240\352\227\367\277b\254\300\232+g\360\277\255}\334\203\206W\370\277\007\010\002,\341\376\366?\032@+J\006M\361\277:L4\337\263\351\351\277|\200\364\000o\331\363?-\020\25468E\330?\234\335\036\302V\271\342\277\273\346\025\226\315\247\335\277\0069\026\326d5\355\277IZ\266\350\200\321\347\277z\227o\344\002O\357?\227v\313\305Ft\337\277,^\273\241;\332\360?\021\023\326\267&\216\316\277W\'-\200?\204\347\277r\226\326\227\353\353\346?\264\370\021\267A\312\266?Ym\353\377/\232\214\277\237+&\301\226\345\364\277\377k\363-a\246\362\277\261cK)Z\377\363\277\025G\230\3371\035\353\277\270\274r7\327u\334\277\215\242\343\342\372\274\372\277\364\256\212\344\n\231\364?\025<x\320\364\322\344?\215\242\343\342\372\274\372\277%\254rg\"\027\371\277P#z\006.\n\373?\371\3279\177\007\305\266\277\350Y\272\364 \020\335?\375J\235\230\354%\364?\341\220\366\326s\327\371?W\277\220pq\313\365\277\234rh\205\216\351\354?\332\227k\330b\020\332\277\255}\334\203\206W\370\277,K\223&\331\035\353?;\033 50\263\363?g\312\370LD\234\357?\342vi2\251\263\360\277\224q\3178w\206\344?t\360@\327E\254\324?\224L(gPB\336\277\341(Z\307\245\036\350?\253\223\022\n\276\215\360?\353\022|\346\212@\360\277\007\010\002,\341\376\366?\231u\202\262\210\000\361\277f.\362\272\207\254\321\277\300\031?q\301\323\341?\206rw\360\2710\257?\273Mi\222\335\354\340\277\277\240\2361\033\222\273?\272;\204HXz\320?\311$_\200\376\035\350\277\020\244\024\340\302\213\366?\212\245\371Y\223\237\343\2778\267\342\257\270P\351\277a\376\"n`\265\356\277\0201\307\200E&\257\277h\303C\352\202E\322\277\256\233W\355\311\224\245?T\306\375\005\235\233\357\277|\200\364\000o\331\363?P#z\006.\n\373?\212:C\035\313\317\355?\264\370\021\267A\312\266?V\331!\313\235#\372\277\347\377W!\212\270\345\277\242\367\377U\334\000\361?\320>@\024\204e\366?\0069\026\326d5\355\277O\353\244\327\303\337\325?\375J\235\230\354%\364?\0069\026\326d5\355\277_\213j\005\267\346\361?\037N]\032zE\325\277\217\003Wt\321\367\312?\231u\202\262\210\000\361\277\321\217\245W\362\372\304?\320>@\024\204e\366?\205cM/\252\236\346?\211\322\256y\300\177\362\277\227\246\222\246\252\002\354\277\226\217\023\r\265X\365\277\236>F\32059\344?\253\255\247\032L\032\360\277\035t\2358\270\354\343?\226\3139x\321F\322?\216\270\031i2\363\362?\247If\337r\203\352\277Q\207\273A\007\241\340?\204\316\373\377\256\005\346?\377+\200<\364(\271\277\267\'!\010\334\334\333\277\324\271H\266\350,\306?\264\370\021\267A\312\266?\250\3078uxr\364\277\222-\372\322\307)\314?\016\276\251\360P\030\366\277\225\006!hr\037\345?\326$\257\271W\r\362?\020\244\024\340\302\213\366?\2256\350H\326\255\321?s+(\307\346\204\347?\"\3349H\206\245\365?\222-\372\322\307)\314?95\265E\276?\363\277,^\273\241;\332\360?r\226\326\227\353\353\346?J\357\007\030|j\350\277\305\201\333\200\217\214\363?\235rp\361QR\343\277\375J\235\230\354%\364?\273Mi\222\335\354\340\277\267\'!\010\334\334\333\277>\203\270\216\2347\352?+{Z\007=\254\327?(\024\017w\360\317\352\277NVS\250\310F\325?\305k\245\372WV\373\277\320>@\024\204e\366?8\267\342\257\270P\351\277Q\t\351\253\001\262\366?N#~\274\217>\366\277?\321\303C>\230\367?\226\341y\226K\333\336\277\273\377Y\'\332W\370?.\245\375e3\336\330?\231$a\206N\275\372?q\306\235xOz\323?\016\3512Y0\\\315\277\305\351o$\232\334\336?\035t\2358\270\354\343?\266\031\3577h\344\367\277\376\205\204\210\215\376\366\277\210\322\252\303^K\367?\007\"\227<o\213\366\277s\344\341L\215L\364?\334,\275\007^\251\332\277\342vi2\251\263\360\277\255\025<\276Vj\353?\332\227k\330b\020\332\277p1LIT\341\322?\1776\230\017}\276\367?\331\332R\310e\362\365?,K\223&\331\035\353?\033\232\335V\366\223\302?\375rdy\356\252\327\277\223@\360:\374Z\264\277\034\250\307Y\324\005\343\277\372\314\316\270Hk\345\277\342\275\253\366\240\267\350?\036\304\200\265\354\305\303?\242\367\377U\334\000\361?:\203\300\372_\240\340\277\350,\rA\267\230\364\277\364\000\361m\241\033\356\277w\251\\\232K*\306\277\347\377W!\212\270\345\277DS\371\031\374\021\324\277\321\355\"\236\253V\373?5\035\016\267*\'\314\277\026\321\311\377\357k\345?\326\364\347\330\363~\365\2772\363jX4\365\312\277\213:K\211\2168\344\277\272;\204HXz\320?\342ve|G\177\365?s[\357\247J\023\324?\255\025D*\032\323\341\277g\312\370LD\234\357?\r\356p\321\264\246\362?\003\246\363\2507Is?\273\346\025\226\315\247\335\277\026\334\351\016-\266\353\277qMe2\272\302\317?\226\3139x\321F\322?"
      }
    }
  }
}
node {
  name: "Const_1"
  op: "Const"
  device: "/device:CPU:0"
  attr {
    key: "_output_shapes"
    value {
      list {
        shape {
          dim {
            size: 256
          }
        }
      }
    }
  }
  attr {
    key: "dtype"
    value {
      type: DT_DOUBLE
    }
  }
  attr {
    key: "value"
    value {
      tensor {
        dtype: DT_DOUBLE
        tensor_shape {
          dim {
            size: 256
          }
        }
        tensor_content: "\357\025 \245\263\030\356\277\234\031mV\276\266\247?^\255:\320\365\231\342\277(\255\257\003\245\373\340?]\225>e\371\002\354?\313\rM5\307\326\341?l#n\216@\274\371?\002\355Y\n\240\036\361?\312b\266\023\200\216\350?\r\275\203\035\266\326\322\277\021\026\014\325\237\014\243?\266\330\210\233\302b\361\277\320g2})N\357?\362\246&\325/s\357\277P&\367\247:\233\356\277Sw\231y\327\373\335?x\267\233\267M(\336?\370\217UE7d\360\277\037\230\317\304\366\270\315?\321\037\023\204\237\355\372\277\270\325\215\r\250{\354?\240\265#\013\027\362\342\277\201\231C6x(\367?\036\020e\366\200K\324?\225\332$\236/C\371\277\r`J\215\247=\373\277\317[\315\001N\213\365\277\361\002\270s\312\300\371\277W\3026\210\255H\370?\3622\366\300\033\301\371\277\333\215\341\250\022\337\267\277w\020\306\222\003e\273\277\373\016\277\330\222\315\371\277\223\243\031\201^1\340\277\203\r\365\375K\315\361?\275\302\346\305\010{\332\277w.I\367t\275\363\277/3\354\003\331\307\211?\347\253\220\020\364K\321\277>\210\330=,u\346\277\033\026c\366F\376\312?(V\364r~\261\370\277/\230>\350^\322\315?!(\207$\333P\365?\205\002\202\365~\204\351\277\010PZ1\370+\346\277a\3233\340\223X\307?\031\244eh\200L\373\277\312\355Y\322(5\370\277;\0171M\237\032\323?0/\274\205q\266\364\277#\262c\300\003\003\327?6\000.\327\315k\346\277\367,\032\253 \274\340?\327\315\317\264>>\321?\272\0227\335\237x\276\277 n\315q}\247\370\277\n\216\354\246\360|\305\277\306v\305L\244(\364\277?o\257\354b\311\343?\351\266\250Y\016\254\363?q\204\365\206C[\341\277\253\364\r\031\311\024\353?\t\233\345\341\341\002\277?\243\254\246\013\314I\340?.\0245_t\221\240?\304HZ\003\"v\361\277hx0\'\213\256\365?\032|\034\246\251\222\360\277{\004\235\333i\224\240\277\ti\305\270\200\323\361\277\273$5zA\300\341\277\366\r/\206\331e\343\277E\r\3372+r\304\277D\367\370\353\365-\372\277\010y\2166\352\321\361\277\025\355\310-\0108\361?\224\273\373\026\320\232\372\277\242\026M$^U\371\277!\321\253xoT\346?\357\356\237\2433\263\363?!(\246U\347\371\365\277\311\300\033\240\"3\366?\374\017\275\232*\263\272\277\001/\027|\217\324\371\277\204\016>\215\025\"\306\277\262+x0>\007\360\277pPM\217Kc\327\277\276T\227\205\317\200\373?rW\373^ng\364?\034\r#\326%\355\361\277\371\267\201\333\"#\373\277\007\223\005n\0227\330?\r\363\203\r\326\345\350?\014\3547\217\267\217\353\277\024\215\013x\216\340\322\277\035S\rz\334Q\371?|\347\276\335\324\333\356?]C\024\356\334\244\352\277Bl\363\333H\331\372?\261\264\'\204;m\354\277\2265l\310\263I\336\277]\0315\241\322\255\274?\266\020\274\333\224\277\303?\321\222\270\003\332\352\327?\251\261\"uu\t\347?\266\330\210\233\302b\361\277\346\016Q<]y\256\277F(ek\253\203\365?GPmCZ\202\346\277\253\034\225\237\026X\340?\355\215\327\300\010Y\362?\211\024&$\361:\373?C \255X\020\206\373\277\330O\325s\n\230\326\277\016\357\031\224\336\211\343?|dlS\222m\360?Z\262\r\276`J\351\277\031%\003gv\250\353?\361\037\r\r\"\022\365?vs\001\306\317\276\314\277Cj^kAy\363\277V\263\365\257\303G\372\277\t\201D\023\265\205\366?\300\r\205\210|\036\321?\235o\332\235kH\344?\210N+\345\243*\363?\321D=+\316\233\373?T\024\034\332\260\363\331?\211\344fT\217\343\352?\030\035k\240\317\370\354\277\303\353^\325+/\353\277\035o5\374\267\362\363??_\346n\371\312\343?\257\n\230\266\022g\371\277*\"\0174V\014\370?\303Z\272\366\263\202\371\277VZ\344\304KF\370?V~\241T\017\222\324\277\345\323\032\356\241\\\372?p\032\266\264\354*\276?\007\202\315\323\034(\363\277^\231\354\262\206\272\274?{\027\032W\021\327\356?\220\333\213\r\202\351\371?\315B$\030\255\221\350?^;\240\026\"Q\372\277~gnBO~\372\277J\257B\007q\334\343?\306\342bX\361\335\370?-c!,\302\r\333\277\364\222\3145$\270\276\277\035o\364\340\340\233\325\277;\357[1\324\030\364?-\030EjP\027\273?-Z\303]\203\016\351\277\307\255\215z,\321\362\277\365\211Uv\353\265\262\277E@\301\361\333~\346\277\3075\324Y\266\342\355\277\302ZX\245\257\324\351\277D\023\351\263\3218\307?\321P\234/@>\366?\324P\274{4\214\361\277\307\312\374\206\260\030\301\277\317\257K\377I\216\344?\013\001V\3113\326\361\277\243\234\335\215bK\340?\020\220\214\256\237\347\302?\037\000=\026mV\373\277\031K\3640%K\352\277\006A\274\305\351/\346?_>\300}a\235\363\277\327]\251\315>\350\341?&7\3512\362\250\364\277\013\377\375q!\017\224\277k\320\333VN`\303?A\r\262{\035\007\267\277\362\262\205\331\241\025\352\277\220\271DU\263>\367?e\006R\230eB\243\277P\326\005)\351F\355?\020\225?\350\0174\361?\345\2232T\363\006\373\277:%[mV\321\335\277\274\265\272\'\255\303\362\277ng\000:\317\t\365\277Z\213\216\246\031\356\364\277\276.\202\375\343\035\343?\363Nac\357f\343?\313Av~ \212\367?\24742\020o\016\353?\232\325V=\365\251\333?\336\303\355\031\023\002\352?\177.\350\265p\323\203?\317i\341\302\273\333\362\277N}Q\321\225@\355\277\304%\352\245\037\215\354?\315\304\'\322W=\335\277\351\\l\\;\250\361\277\376}Yw\033\030\324\277x\316\225\275\272\313\300?\213\221\026\211\3675\367?k\236G\264\227\277\356\277\307\302\r\325\375)\364\277~?$e\220\037\365\277\214Bn\231o6\332\277N\340)0o1\327\277\265v\327z\235\312\337\277R\224\307j\204\354\315\277\372feJv\314\371\277\023e\344n\3238\361?H\274\250.R%\360?\235\250\330\n\000\366\365?\3702\\\034b\313\332\277%\363\025l\214\004\333\277\327\216RcuO\357\277}L\251\275}\021\322\277C\033{:fB\277?\304\264\230\254\3044\335\277\347>\215\030C\253\363?\336\215P\314z\370\267\277\352\303\363(v\014\334\277\365!\304\316>n\370\277\377\363\301\317\\}\315\277A\022\327\303\037\325\305?\022\361u\307\367\230\325?\031\265\273II\373\332?.\326gz\001\260\343\277\226\3031\214r\234\351?\035v@.PV\356\277\315\253\235Jr\210\365\277\300\r*\227^\322\267\277b\275\350&\225K\323\277m5/\351\235m\333?@,(\2374\032\360?\234\342 \273\373N\350?\363\231\335\n\351\300\367?\215K\n\373u#\302\277P>\025\375\001\340\362?\325\272Cc\272\356\351\277u\316\252r\007\017\306\2773\246nR\311b\363\277,\226\300\373)\261\362?\013\034p\304a\251\220?\006\264c\200\340\215\315\277\177+\217\034+\027\340\277\331\251\221\t\265\351\362\277\037t\252\323\017\355\340\277\016\344\304\322\344\340\365\277\233YW\222s\273\317?\255\303\004\006\000\022\372?\274\247\347Pg.\357?\355\003\2014!\025\352?\034\3235\203~E\314\277\374\257\215\234?\035\365?"
      }
    }
  }
}
node {
  name: "Const_2"
  op: "Const"
  device: "/device:CPU:0"
  attr {
    key: "_output_shapes"
    value {
      list {
        shape {
          dim {
            size: 256
          }
        }
      }
    }
  }
  attr {
    key: "dtype"
    value {
      type: DT_DOUBLE
    }
  }
  attr {
    key: "value"
    value {
      tensor {
        dtype: DT_DOUBLE
        tensor_shape {
          dim {
            size: 256
          }
        }
        tensor_content: "s~\010\222\'d\363\277\235.f\375\202\364\353?\"\265\235\314\226\275\344?\320\\\210\000\214x\372?x\220\215y\035\020\356?\222\301\357\177\230\r\356\277\332O\203\022\216\000\371?\321\375&\333\333\317\372?\300\010\221\213\341\020\347\277+\260\215\263\027\000\346?\025}\345i\306\006\367?\201\264\277\205\224\030\311\277\027\361u*\010\357\362?\315D\251\201\017I\362?\326\376\205\345\231\037\323\277:\320\177x\217\n\302\277od?\013\340\036\372?\367X\362\327!F\370?\231V.\201>\254\323\277\205l#\256\335v\346\277ewi\342\240b\341?\000X\034 ey\342\277\267\010\250\362y\375\315?. \316\006\253\250\363?\3630W\3620Y\272\277D\310\273\333!\210\366\277\317L\236V\216\003\365?\266\233 \211\334a\367\277\304Vx~\366\016\344\277\251t\202}\230\232\355\277-\212\251\'\231\373\370\277\216\327\356\354\251\014\352\277AS\373H\310\375\361\277\341\205\2407f\200\361\277\303\2111\372\310j\351?>\330E\205\207\032\363\277w\353n\351b\t\342?\254\245\000,*\245\364?\003\264\005\225Vg\267?%1\215\350/%\343\277\201\216\022\210\203\\\367?l\'GG\324:\360?\200a\225\201\225\340\310?.4\010\036W]\347?\247\335s\2206\r\373?\270{\327\315\0333\364?\270\033\246\326\353\312\364?\304v\307\264\234u\365?\301\270\271\032\344\362\360\277\217/[\3076-\362\277\232v\342\262,h\340\277FJ\2664\216\227\364\277\320w\321\016K\331\353\277\356\273\223D\321\354\366?\216\262\220\323\247^\361?gt.\033\345\333\351\277j\000.\356\215!\370\277\'\315\346\321\353\261\354\277_(\275\216\331!\357?\301\006\207a\t\315\347?\300\247\020\260\242\232\336?G\347\332d9t\351?@H\206\330\032\303\340\277\022\003\273\243\222\351\320?g\333?A\241E\365?\360\375E\206\277\007\372\277\246\247\240\317)$\364?!M\334f\207\305\365\277BR\226X\315\240\363?\272\021\354\253\007\306\351?3k\340\210\370\022\346?\027\275\321@q\347\315\277P\206\223lj\265\361\277\021\013\252\375+l\365\277\327\305H\225J\005\363\277\017\273\242\324R\333\363\277\0169\243\360U\\\341?,\256\335\351h?\367?\363\203 \340\304\204\360?\271\320~\310\347\326\350?;N\2662\253\013\361\277\324\261I\247G@\365\277\312^(\244\213\367\371?\276]X\030\332\345\367\277\306\257?\303=\252\363?\341\244\204\002,R\366\277\013\204\245L\364\204\344?\332\224*Wp\340\342\277\254\357\207\213\341!\364\277\370\312\2476\022\225\346\277\3152\372\201\254\211\344?\316\375\300\204\347\334\335\277\325nG&\236y\367?7g\220\033J\323\367?7\267\261[j]\327\277e3\3017\305\354\350\277}\253\3739B<\350\277\264-\201\311\235\000\303?\333\266.\342Uw\367\277S\273\333/j\330\337\277\014\\\021\367\306\277\350\277\375\323\274L\242\332\372\277U\244\355)x\211\327?\342\360\262\000\376J\317?\014fvL\022\261\367\277\267\250\345\347)\242\370?\201\264\277\205\224\030\311\2775;\207\026(\006\363\277\361\337\334\267\340\341\370?\"\031t+\227\240\370?\200Y\017\231\3662\360?\002\036\266\217\270T\212\277/{\335\271yY\267\277k\277\373\310\277L\345?,\274\3742;5\364\277\265\336s\324\303\221\330?\361:O;F\316\302?\336\326\242\312a\251\361?\035\330\313\211%\227\351\277\004&\004\323\024Z\365?\026\271^\001\007m\312?\365\340=\235\200\224\316?\024h{\020\343\254\354\277\327\020\027L\030\351\215?\256\323S\244\006@\373\277\304\273\204\005k\244\344?\346\005\027t\244\227\303?q-\234xSv\363?\337\377\366\360\350\023\330?+f\000\331zK\370\277FaJ\332Vc\334\277\270\366Px^^\303\277\023\323{z\325q\225?_\354>l\010L\347\277\005\344[<\360H\363\277+\3126\023\212\351\352\277\006C]\206\2216\364\277\000\242\370@\263\367\231?\026\272\255\345\025{\343?vD\240\037\332>\371\277@\260\354\355\253o\345\277%7x\223\326\233\346?\003\337\233C(\332\333\277\031\321\274\222\022\353\353?\'\330\001\342oi\335?\355-\336\301<\331\323\277\016\027:\217\261\227\353?y\030\202\216\001\350\372\277q-\234xSv\363?\241\333\357\271\326\302\314?T\350I\225\246\005\341\277\\*w\336\310\304\364\277\376\274\330\\\321j\373?\321(\n\271\257\004\370\277\177\350\010\212\004\252\333\277U\205\217\222\332d\255\277\334\031\260Q\201\027\362?\242y\221;k\272\312\277\252\341\247\273\3549\246?\336\244O\277\277o\366?\000\255\303\0321\035\367\277\244\017\307\233\330F\366?\364U\245\017\325\032\264\277\245h\316)\002l\330?\300@\317A*\301\345?\324\217\246w\246)\333?\t\372V\236\246\235\306?\337b\022\n \301\365?\310E>\225=\356\343\277\r\263x\274g>\361?L\310\000E=\254\345\277\335\210\373 /5\367?\3064_gZ\356\365\277\'\336\220\274b\317\372\277\272\273\005\363\333U\313?\350\211uW\022n\361\277O\263\014h\375\206\367?zQ\340\205[#\333?1D\027z\272\235\365?\330K#\1770\177\373\277\377\355\260k\214\370\362\277Df\365!\337 \360?ft\351Fr\342\362?\2710me0\334\260\277HCQ\r6:\371\277\251P\357\252\205<\320?\0305\027j\251d\303\277\205\220\255\305{\223\334?\356t\325\204\237\273\317\277J$\275\034Y\t\356\277\313u\007\t\314\367\344?1\025/~\220Z\337?iB+ZKF\366\2776 \336,Z\352\342?)\r\242*\267\254\276\277I\221c\230\355\020\365?\223\277\037\224\334\036\361\277B\215\310F>u\331\277T\353\264\244\036\374\365?\225\247\301w)\177\241\277\010\236$op3\354?\023\005\260A\264\243\346?Sc\272\024U\354\372\277\3129\024\352\214\262\354\277\\/L\363\'\272\347\277\345\375VM\351\224\330?\322%\345m\377\317\363?\260\301\331\347\017c\355\277O\376\016\304\233\257\372?%/\004\254\310\222\312?\336 \325T\200\022\365?n\205\330\232\004$\360?\311\372\005\006\336\032\307\277\023\323{z\325q\225?I!H\367\2773\360?\244A_{\355y\350\277Usj\360U\017\334?\003\211\337\242i}\340\277\371if$\200\343\344\277\366_\322\006\256G\324?\016\212\256>\306\306\310\277\360N\035\201\030X\373\277=_\253lzZ\344?#\366\n\260\266\254\345?\352\310\223\314\307\034\336?\034Mg\3328Y\363?\252\236\333(+\252\361?w\n\036q\274\370\326?\302\303~ez\316\373\277\021\375\334\223u\317\277?\247m\255\304\241C\362\277\354|{\332\341r\372\277\371\343Lq\355\244\325?\\H\373C$\251\357\277\253\347\227A\363\326\325\277\2026\360|\031\250\330\277\247`\323\331\235y\367\277\033+\3160\330$\340?p\236\034\n|\260\366\277\014|\260wu\312\341?l\0019~_\373\345?D\335\360\361\230\377\320?e\013\316\366\3354\350?p\021H\332\302;\364?\212\370\010j?\303\326?\026\025\304(\250S\351\277\254l\275`\365R\366\277r\031=\257A\366\366?\350|\240\367\236\023\333\277d\215\235\"\377@\357\277kUz\010\373|\360\277\t\342&zu,\365?*\003\205\3444\343\353?\025\335\026a\366n\366?0\257\247\325\253\361\340\277?\342U\005:\370\345?"
      }
    }
  }
}
node {
  name: "Const_3"
  op: "Const"
  device: "/device:CPU:0"
  attr {
    key: "_output_shapes"
    value {
      list {
        shape {
          dim {
            size: 256
          }
        }
      }
    }
  }
  attr {
    key: "dtype"
    value {
      type: DT_DOUBLE
    }
  }
  attr {
    key: "value"
    value {
      tensor {
        dtype: DT_DOUBLE
        tensor_shape {
          dim {
            size: 256
          }
        }
        tensor_content: "bnJ#l\351\362\277\r\375\t\035\346\356\360\277\307\023\333\354\227\203\370?\342\304\350D\264Q\351\277)y\215\370J\310\366\277|\376\311y\006!\363?\254!\273\352\340a\364?Y\254\234:R\"\330?sBY\257`\014\373?v\342@\030Qm\305\277\3432[\235\361\237\360\277\237\215\013\205\t2\350\277\331/\027.}\323\365?\335QAV#\357\363\277,\030\272\034\270\022\371?\202\343\021z`s\357?/\265\252|\236R\361?\261\003\241#\007S\246?\347!K\366\244\230\357\277\305\332\262\303\322\002\363\277\205X\023H\264\205\342\2775K\t\363R\272\365?\350ea\237\247m\350?\251\262\350A\200\265\371\277\016\010\202\271\344\335\341?\226\231\016\270\302!\370\277\377x\206\201\274$\357?\033\203\023L\0307\361?b\344Z\264~\034\373\277\353\321\2306\201\235\314\277\214\240H\006i\204\352?\247\237E\tG}\357\277\226\354\373\017q\310\340\277Z\251\006f\251\242\353?\371\367\272\322\210\220\257?\000L\r]\271\367\305\277\317\310\215i\n`\365\277\240\030\217a\233 \364?\347\260\302.@|\371\277o\302U(Mp\371?\275\267<4GP\323\277\352\315\333k\024\200\367?\243\272U\311i\230\272?\326\003aO;<\360?!\304\000\240\330b\340?\263v\325b<\233\366?aD\320\010\261\\\367?0\355rU@u\343?\324\021]\205 \373\370?{\244\224\267c\247\361\277@\275W\237\347\366\372\277\217J\250<\267\231\372\277N\224\030\242B\304\372\277\351\217\213\372#\014\350?=\313\023\210\215\216\372?\367bV\330\262\373\367\277i\375\300\333\001\030\272\277X\226x\344\323\200\325\277\334\277D\266{\354\357?\237.\217\024\036\030\300\277\265w\372\252\204!\362\277\207\243\327\314\352\313\323?\204$\033p\336\311\371\277\211\210k\035\313^\304\277\r\243^w\004\020\355\277\202\343\021z`s\357?\335\020\337\354I\255\344\277T\256!\260\360\342\332?\241\\\307\354\\\t\351?\020\211K\002[v\346?\263\325\311\207\257U\332\277J\005\272\217\303\244\334?p\236\302,\306\276\363\277\367}#\337\000.\371\277e\263\237=\366\364\351\277\014\032F\367\335\326\257\277OW\004\326\363\261\360\277\347h\366]l\202\260\277\023\214\341\326\003\366\322?B\217\363\252e\301\314?\332\230\260/\250\315\334?0v\034\235I\224\352\277e\262\321\302\023\225\355\277\215w/\n\367\244\324?\257G\237\214\245\252\273\277\300&\323\006\247\325\323\277N\362\371\271/\250\367?\311\223\200\273\353\344\343?\334\321\207\236\221\306\346?h7\241\242U\322\364?;\335\r\234\276\216\334?\020\245\320\321\212X\360?TD\302\354b\354\360?/^\302\272\277~\327?F\266\232\037\332\r\322\277\352J\325\263\276\261\362\277\033H\021\216\312\346\306\277U\354Q\020k~\327\2776\005\001UKN\347\277e\342\206*\372\230\362?\325yy\231\315\322\361? \343\327\2640:\363?\324\320\304X\3200\303\277IT}\245$\252\344\277\373\213\262\270L:\373\277\364\331n\361\345\314\324\277\237\215\013\205\t2\350\277\212g\272kde\365?\010\342oe\3630\356?\232\034\211slj\227?\"\332[\217y.\343?*\311`\237\220=\326\277q\271\013WT?\370\2779\257\207\2526t\355?\n\212\n\266\226:\346?\316\322?D\246R\343?\003HW\240s\022\364?\372\001\323\273^4\366\277\273b)\312\022O\324\277U\251\246\344&\177\343\277w\272\350\230\335:\361\277G\237k\305\231g\373?\307\305\027\246\327\270\333?\027\216th\360&\334?xbA#\303\242\347?B~_\327\024\232\365?\261\244V\017`f\304?`\316\007~]\264\361\277W\366\207\307\306\"\362\2775\327|,\206\034\372?BnJ\272\004~\356?5%8\272\306\203\355\277WQ\377n\014\347\371?V\214[S\224\240\366\277\tj.\225\277+\336\277\202\322\017|PJ\337\277e\220gM.R\346?4\010\360\234O\271\330?\221X)\035\202Y\342\277\371\367\272\322\210\220\257?_\345s\251;\033\342?n\312\355 !l\371\277\276\201\004\252+?\223\277\275F\323\322\377\340\331?\304\025\277\350\033\316\363\27792 \360\016%\267\277\013T\017|\037\207\345\277\203\204\330\312\317\224\370\277F\177\204\037] \361\277x\014\232K\352\177\364\277\226\267=v8\020\365\277\036\247\263E\203\233\341\277\330\204*\230\261\324\364?\371\346\201\330PP\370\277\251\230\231\366\325\364\370?\003\274\247\220?\211\365\277<\205\250\354a\230\324?\266W\225h\211\021\354\277\006\034\360\325\027>\364\277\275\177\2433\302\241\340?\375\253%\364\310\226\373?\365\243C\326\314:\240?-\006\000\3301\307\212?\306\363\343\324[u\373\277@\246\363,\211\363\323\277H\023\232\323\246\312\340?qX\363\350\035\023\300?qj\360x\360y\361?I\270^R\246\233\314?\240J\310\223\307\271\325?\201iq5\301\000\347\2775\202\013\n\222\340\344?\014\375_\034&\306\355\277\313A\277\226\337\330\355?*\231|W\007s\372?`\021\225>!\240\330\277\214\204,$\032\247\317\277wze\027\203\271\320?X\202r\337\325\203\330?\257\231\276>\036{\364\277|\237\374{\266\311\354\277F)\243:F\277\365\277\271\365C\321R\352\355\277\277j?\257\351\201\371\277\310*\236\345\333\020\350?\320\303\375\346\334\345\351\277+\321\267\237\314\346\326\277\3617\213\021\256\210\371?\345@Y\234\231G\333?\335\210\241%\"P\371\277X\204\004[\336I\275\277\306\236\210dh\351\371?-\222\236\370]b\314\277\202\240\321\004\300a\354\277\212\267\253}*\356\361\277\2713\014\357D\254\361?C\225\"\320X\'\345?\264\362|SD\273\370\277\265K\354S\2048\367?\357\022%V\340\'\326?+6\227R,*\350\277o-\366\325\340\027\352\277\200+F\032\253\264\373?>\300\243\244\016\003\343\277\010\277\010\235\016\032\373\277:l\025\341\327\207\373?\370\217\335\245\362\006\322?\327\250-\217@\303\314\277\022\217\246\213O<\346\277\223QA4\020\252\361\277#\'\3257\027K\360\277\024S\016\372\237\316\274?~&\2123|\332\350\277rO1k#\224\352?\t\3543J\234\336\237?sZ\177l\343\013\306?\020\227\344:\034\253\307?\030Z\257\262\376\224\364?\274\235\264\206\267|\360?\'\304ef\277\325\371?\270\231\017\034\307&\354?\243\367\026\032\240\214\316\277\214\307\250o\273\337\354\277\"\212j}\263\245\326?\261\035\342\205<l\373\277\360+ceMM\371\277I\033\033o!\353\366\277L\262\265\212w\264\340\277yNr\267\347\317\352?\375\342\'\013\010\275\352?,\005S\272\177\001\351?\302H\250*\252\263\364?\222]\177\222q\225\345?\032\257\302\0343\226\363?T&\017R-L\367?\264\024\214\204\205\327\361?\277-\354\230~4\315\277Ppq\275}K\363?\016\370y\232\270t\345\277\317F*\3032+\365?\0239\353\3128R\361\277CW\224\277\244\243\331\277+\250)kt\315\364\277\264\326\217I\022R\335\277\034&\342C\215\237\343\277^\331\261n\032~\361\277vf\001bK\324\344\277/|\2445\230\345\327\277?\300i\227\320\304\372?\3572qr\277s\360\277\245WN\352U\216\363?\010\300A\306\016\025\301?\356QH\207\027K\343\277Hh\013\366\232\006\366?|\247\346\374\213\234\372\277f{i:\225\320\356\277"
      }
    }
  }
}
node {
  name: "Const_4"
  op: "Const"
  device: "/device:CPU:0"
  attr {
    key: "_output_shapes"
    value {
      list {
        shape {
          dim {
            size: 256
          }
        }
      }
    }
  }
  attr {
    key: "dtype"
    value {
      type: DT_DOUBLE
    }
  }
  attr {
    key: "value"
    value {
      tensor {
        dtype: DT_DOUBLE
        tensor_shape {
          dim {
            size: 256
          }
        }
        tensor_content: "\215\325\033vD{\277?\250\260\332W\032J\365?`t*=\264\264\351?N\261\'^Cy\342?\035\240\334\376\212G\343\277\272\003\355Z/g\361\277\264\364\031\036\322N\365\277\247?\206D\224\220\360?\300\322\317R\2539\350\277\000N\372\007\307\246\323\277\021\331y\200\341\024\350?\177\234x\033f7\367?\344;\245A\302\211\353\277+\2122\207\340\351\367\277\006\0214\252\332\017\360\277\214\247s\333}L\341\277^\r/\356^\251\370?\333\000\341kzi\334?u\257\235qc\035\366\277\241\021e\244\036\277\341\277\204\375\211\261\225|\271\277\325\001\256c1[\372\277\266\201\220\356y\'\337?\327\247.}\027\346\361?\201\356`\000\355\314\341?\260<\332U\310(\275?\342i\037]\262\324\340?\316\320BR\336\204\346?v\301\201\337\005\257\363?\020N\301\205^\362\372?\025\032Z\014\301[\324?\246\373\224\207\2534\373\277\274\rW\373i\355\351\277\270\r\267\271\n\222\365?\025q2\031\032\251\366?\305\276+P\2263\333?\326\t5 v\371\341\277\363\222\356W+\'\261?\316\311\223\275g\344\353?\312\236\224*\005\000\373\277\370\010\203[\240\377\332\277^\335!h\177\006\301?\255.\263>\224\354\313\277a\210M`H\305\360\2772\206\226\240\360\363\263\277\322\244\376\351/k\372?\304\307 \335$~\364??\014E\225_\001\365?t\227\372\265\014\210\334\277\300\241\013\306\241\205\345\277\304\341\234\343Q\352\326?\213\301\\\217dT\352?\226\"\273H\241C\350\277\017\350&\030v\000\351?IJ,\017\356m\361??\t\022\254B<\362?\367\026\306\017\030\204\354?`w\321\0269x\367?Wm_\234\0340\353\277i\004\345\322\316\375\361?\205\272\032\250/\207\365\277\t_\274\200\207v\273\277M\311\341\241\226\262\366?w\305\237\213\300\320\313\277\0160:nF\303\370\277\n\260\242\032\354\323\346?\034\240W2\031q\363\277zV/\363\'\372\336\277\342\353w\334\356\373\371\277\270\243\235J\223z\340?\342\226\345\307\255X\366\277P\r\212(\333\r\333\277\255/\220\352\206*\362\277\210O3\252\t\203\373?\266\201\220\356y\'\337?\037\272[[\261\231\370\277J\202i\225]\274\275\277:M\020XD\217\362?\261H\250\271M\227\342?\004s\253\347\343\237\360\277\331\361\222\373R\303\367?a\212\232\233\206\232\344\277\035\217\333\350\t$\372?L\233:\355\315\346\257\277\315\373q\024\034`x\277S\004\222E\027y\366\277\n\302\007h\323\366\361\277\002\325\253\336\213K\343?!\026\025\342\375 \344?\256\2455{w;\341?\24450\326\230,\350?J\254%\303\253R\327?\314q\342\361\320\325\344\277\320_\006^\210\316\333?\242\030\027\217\312\251\347\277e\252\366\020H[\335\277\312<\221\335cn\345\277\260\377\305=_$\346\277\263\334\344\246,P\371?\211?\024U\376\245\366\277L\224\220\215)K\367?#\010\314\201\013\231\335?\017\251\025>\021\033\345\277f\221M\035f\344\331?\352\250zS\271\035\355\277\365V\271\252\362\257\364?\177\234x\033f7\367?\350\023YO/\324\326?\031\355=|\010\340\342?\002#\r\350\241\371\366\277\230\031N\336AQ\331\277\013\251\360/@\351\340?\244\365\254>\275U\320\277F\007XN\267\300\177?B\317\002m\355E\372\277:\226\207\345zQ\344\277\277d0\237\366\231\373?`Gt\027\217\251\371\277\217\242\232;\2508\344\277\317S\353\326}\355\371? \244\353\374\242O\365?\"\317\343L\337\010\341?\363:\367\253\255\231\363?\263\317X\371\336\334\342?\315\020\305R\206\374\356?{\277cK|\270\323\277O\327B!\271=\367?\004\213:q\257?\303?\230\252Q6\021y\367\277t\014\260\377\376\227\344\277\264\371\003\232\261:\367\277z\322\025HE\377\366?_\321\267\376\335X\350?\026\337\021P\215\377\313\277\333\255\224OQp\367?\033:L*\302f\371\277\350p\021\313\034v\337\277\312\274{\000\202o\340?\317%IW\207&\365?\343\316b\202M\276\373\277#1\373\313G\364\365\277bZ\303\377\201\001\366?m\237\332\355\007\004\343\277Z<\0320\222\206\362?%\177`\302N\203\343\277em\003\'Q)\221\277Upzf\t\362\323\277\3712\210\016]\232\355?5\240\273\233\332\315\363?sT8\335\246\034\347?#\032\301\\\332f\274\277\356YN\021\262\004\357\277\301\"k\374k\302\337?a\\\014N\317\365\357\277CU\312\250jQ\340\277\374\316\320\204\362\307\373\277\252P\032\255\323\340\363?\311\330@U\374\317\354?6\257\212\353F\005\366\277\254\361\330\256\340\373\370\277;\204\"\230W\312\360\277\252\326z\347\001\345\371\277\3205rE:L\361\277x\362VH\031;\373?7\223\317/\354\265\361\277\\\361l\357\031\223\367?\032$\337!\255\002\371\277\026\203\262\333*\265\356\277(@P\177\225\305\337?\361\327\006n\177\265\372?\222\037\371\371.\373\365?\035\374\0023\315\316\335?\335\363\363hX\362\332\277$\207i\365\203\332\350?\337\271H\325\224\201\370\277\030\335\246I\244#\371\277\266\030\345O\020X\363?\026\r+\307\316\323\277?B\302\212\361f,\323\277\245\274\340\025*r\350?\353J\360[\264\345\364?N).\\u\035\355?\324\362\336\023\305#\370?\301K\2363\231\376\361?\004\370\037\310|L\352?\241\220\014\261\362u\355\277\354\005\370\317\014I\326?r\211\375\341{\202\361?\374\311Cq\272\232\322?\2146\265p\257\245\371\277z9\205\207\002\t\363?\"\232\205I\321r\307?c\233\303\306\273\376\265?\303a\206o<\214\342?5\240\3054\276z\363\277\377b\rr\225\034\332\277vx\nR\317\354\321?\332@}Jd>\311\277\323\026(\317\212<\351?\222\211\034\002\212\277\352\277\376@\372i\0215\342\277Q\3160`\263K\276?_t\236-\034\263\364?\351\256/\010N\020\361\277\276\2440)\352\274\356\277\t\237\"\344s\335\342\277\036\350\036\255\371\021\270?\023\230\"\256d\205\365?\277\366\214\376\330P\344\277TD\0303\260\321\370?f\226\306\376\232S\373?\002\316\377\237\322,\343\277x\026\024\364FR\367?\214\251C\265\3069\266\277\344e(~\216k\360\277R\313IR\302\014\357\277\325\200A>\306\357\365\277\265rd6*\315\373\277%\336\245\255n\255\320?\346;\'\270:z\370\277\275\267\354\276ZL\371\277\211\236\353\373\250\235\356?\342L\024\2340\250\352?\362\275\035\272\324\021\372\277\326\031+\307\337\316\222?\300\230\245\236h\276\353\277 \200.Qu8\371?Z\252\267$\275\003\304?\311\230\363\247\373\002\316\277(\216\030\212\372z\343?k\230\246\214\037\215\370\277P:\264>h\027\346\277u\304\246B\022\202\364\277/~\"0)y\355?\236r\363\335\213\335\370?\2720(M\306H\361?;\255\\\022#\372\350?v\225\252$\325\314\365\277$3\033\2168\251\264?|_\231\007R\242\342\277\362LZ\202\006\274\213?\026\021\376}kA\352?\027\026w_\240\260\373\277j\354\366/\303\022`?\n\370Q\305\356\254\310\277?I \274\202\265\357?\004\232\245\025N\215\367\2777}b\'\327Q\361\277.\016<\355\260\007\342\277\242\256\363\206o\345\362?\310\323;d/_\326?\026\006D\330\315y\367?\026\r+\307\316\323\277?\314\361\343\234\353z\352\277\240\313\215\255\276]\351?\272\177\370\275\225f\336?"
      }
    }
  }
}
node {
  name: "Const_5"
  op: "Const"
  device: "/device:CPU:0"
  attr {
    key: "_output_shapes"
    value {
      list {
        shape {
          dim {
            size: 256
          }
        }
      }
    }
  }
  attr {
    key: "dtype"
    value {
      type: DT_DOUBLE
    }
  }
  attr {
    key: "value"
    value {
      tensor {
        dtype: DT_DOUBLE
        tensor_shape {
          dim {
            size: 256
          }
        }
        tensor_content: "f\274\004/ I\367\277\016\321\227\263\342\304\324\277A\017\001\223\\X\351?@\003\250\246\263!\366\277\213\251\304\013E\027\302?\031:0\245\247t\360?\t\233\210\033(n\307?\320\021\311\252E\265\351?\315\357\254\027\213D\361\277?\262\272\316M\366\353\277\366\340\203\205\331`\343?K\315?\374\017\252\371?\274\276\026\242\3155\330\277\336Sc\251\363`\365\277\303\323\036\202\266\366\315\277\232\275\227hn\217\305?5\370\222Rm\375\327\277\345\\\016x\245\212\326?\202kO\353\320\337\311\277\223\004b\215\243{\361?\224\245\313\2739\233\370\277\177\224z\005\261v\345?\037HaX=4\324?\332\331\212\013\207\231\371?\363\206s\364\374 \362?\360h0\375\342\236\326\277\225fk\224a\333\362\277\014\320\250\374FS\302\277\376<\376?\241\220\354\27713\304B\264\327\361\277\256\3702\214W\326\351?j\001\322\367p:\351?g\3618\221\030e\345\277[\223\211Y\327\301\342\277p\252\371k\230\001\361?\363u\264\303\336\301\351?@\242\250\346r>\371\277\222\347a\026D}\352?|\201vc\013\370\361?\251\242I\224\256\260\340?l\272\305\010:y\353?\257J\304\277\222\320\362?\365\n;\371}$\324?\235N\004\027\326\020\360\277`\310\261\344\347\221\334?P\375.\350\374\252\227?\307\020@;\373\373\361??\231g4\213B\312?\277\035p\271\302\243\372\277\226)6f\327\276\366?\201\207}\2752q\363?\341ug\226F:\371\277\353\251\233}\232\224\330\277\240\203\235\315\270\342\352\277\236CC\257\032]\367?\337\272\275\214z\317\365?\302\2511\313\342\276\365\277\362\271\330 \315\201\361\277c\031\207\026\346%\342?y2\352\177u\371\362\277\3669\222\311?\372\330?\212\024b\367K\215\373\277\371\370R\300\336\275\370\277\010\254\027\244\315\223\341\277\025\370J\022\366y\357\277!TL\247\344\321\356?\026u\363\367\354\265\361\277\334>\261\010R\214\371\2774i\002\354)p\324\277\006\346\233K\321\306\365?&\260\242\234\2573\311?\202\330\014\244\367\304\360?\200\237\230k\246\377\354\277\276O\3541\353\367\320?:\265\201)j\222\373\277(t\223\334A\226\354?\0262c\246\034\016\362\277%\341\007\260\312\262\367\277,\022k\024\200\253\334\277h\037\343t@\236\371?m*\013_a\367\360\2778\267\260\243\357\240\313\277\325\022w.\235I\363\277\277\205\216\3646Y\334?\241\3734sm\365\355?j\226\0026v\233\357?\343\004\341\355\337\'\321\277&\270\004\350\262t\334\277\300\326\270*h\354\367?\20260\241o\362\307?\306\331U\340\377\263\322?\247\331\355\243p\270\367?lRQ2\325\314\352\277&\001\360\270r\262\364?sI\245K{\024\371\277\005\201\262\254\321;\367\277cI\276\t\213:\336\277V\347LESH\372?\276\257&\003\201\234\363?\023\354o\023\006\223\373?Sb\350\243\357^\356?z7\002\307W\366\314\2778\352\3478\234\225z\277\316\036\236\374\244l\360\277\034yDY\021\003\362?\277_\356me\356\367\277K\315?\374\017\252\371?\3218L\0313F\360?\352\304\r\362\025\265\371?gd\334\020\221S\342?\244\201\253\r\250F\321?i \237v}\004\355?O\020\311\216\355h\364\277\202w\300\331\212\270\366?]\201\330\207\243}\332?\356\204\204f\023\343\313\277@\3170\335\265c\364?\334\016\257\035\310\376\360\277Q\261\335\270P\211\345\277\206\023\245\272\3729\364?oXh8]\007\350?\311\r\200\237\321H\347?\260\335\253\013\331\246\307?1\377\231\'98\350\277\356\244>&\223D\352?\210\375\263z\253v\246?H\215\021U\310\335\367\277\342\371\321@\344]\367?po\223s6\240\323?d\277\270O\013\273\302?\371\315LQA5\364?\343\0279Y\244\270\366\277\033;s\311\270\355\337?}\223O+^\212\365\277^*\337h\365\324\346\277\210\005\246%\006\216\366?!k\361\372\375D\362\277\216\337\321\321-\211\362\277\307b{w\234\364\346\277\006O\274w\022\030\356?\236\327\364\245W\312\360\277\211\207\344\343\356\013\355\277O\376\271\313\030M\337?\010\331I\243v\267\350\277\370\263Q*\2072\367\277rm\264\221\255#\371\277\352\303\013\245\237\016\356?G\357\334\302\246\350\323?m\\\344\325\303 \346?6w!!\215\211\357\277\030\276e\367\024&\241?\207\036\344\263\3052\347?v\276d\013H\347\321?\330G\216\3228k\335?;\000y2t\350\356\277\255\310\037\272X\232\361?\"/\306\023\361\244\372\277\301\203\026\361\274\214\345?k\021&\252M\307\315?I\006MVR\277\371?\216\2279-\211\220\332?\231pD\'\340d\341\277\271R\212\243\201C\347\277^U3y|~\321\277h\025\013y\177\014\344?\210\265m\220\352\337\372\277\254\221\320\256\311\221\360?\354\267\273\245d\260\361?\271bxj\266\"\326?f\212KX,\215\357\277\005\332Z\005\220\'\367?9\377vA\247L\350?\347F\220\205\017\231\340?\005\272U\23248\313?\026\005\256\241\3057\354?~\020>\244;\361\305\277\331\312\023\222\023\330\356\277x[Z\362\'\316\330?\255\234d\254\307\211\371? \t\350\363?\345\360?rL]\221\364\346\325\277\223\035\306\016\333\335\302\277n\345\222>\232\372\317\277\353\340\013\034\377\014\365?\216\310\034.]_\370?\212\252/.\335\336\340\277\253\032\300\246\215S\370?G\030\310\210\255\204\365?(M\351\016\363\256\363\277\350@\253\235(r\371?m#C;\035\240\266\277f\322z\'\257d\344?\314\030\005\344\325\201\362?\373Q\257\245.x\364?\220\335J\336Q\177\273\277\310Q\022>\030\227\362?\\\370\222\230E\272\356?\\>\333/\2174\373\2779\354s\332\025\273\350\277\276\365 \371\340\365\351\277,\264\251\335!\313\371?^\247\364\370\206\247\363?\310\002A\246\006P\364?\204\034\2576L\277\355\2772\300\353^wW\354\277\010\327\315zn\212\300?MEa\n\274M\373?\215\207\220vy\004\360\277\340\205n\232\240\250\305?\375PH\250$\021\367\277\200)\340K\321^\337\277\220\354T]\025\277\301?H6\342\226A\266\367\277x?\250\256.\361\276\277\n\222=\020\351\000\360?\324A\315\303J2\344?\342\373:\213dk\340?\230\350(\261/\024\221\277y\375\301B\235?g\277iHu\265\334\317\316?\005x\217\363Z\'\360\277t\217\025d\215e\244?\000X\266\377U\361\365?\307\257\363p\216\357\367?\250\265\n\325\224b\331\277\207\264\026?A:\371?\374\2367K\2014\301?\252$\325\\\303W\364\277=\373\372\243@3\352?1\277\322\217\325\307\267?M\337\354L\014\203\333?\031\277N\373\321\035\344?rb\245\344\261Y\337?8\343x\027\276\364\354?8\245\021\254\227\r\341?\260;\303\335\'~\351?@\347\3466?<\341\277D\013mO\216\247\366\277\013\010\241\317\341\227\362?6\2241\350\243>\355\277-\260\330;\210\262\345?\201\212\035\001\233\241\306\277\036[\210\340t\236\367?\n\270&p\304\024\305\277A\000\273X\037\310\305?\260\021\267eP\273\362?\374\274(p\217\025\372\277\323P\335^\257C\353?&\327\235\365a\257\345?P\324\002Xt\211\356?\033\242\224\317\253_\365?\023L\272\220\374\370\351?\032\252=\241\374\315\264\277\356,\005r\177\t\364\277\256\"\312\003\344!\370\277\235G\277L\201v\365?"
      }
    }
  }
}
node {
  name: "Const_6"
  op: "Const"
  device: "/device:CPU:0"
  attr {
    key: "_output_shapes"
    value {
      list {
        shape {
          dim {
            size: 256
          }
        }
      }
    }
  }
  attr {
    key: "dtype"
    value {
      type: DT_DOUBLE
    }
  }
  attr {
    key: "value"
    value {
      tensor {
        dtype: DT_DOUBLE
        tensor_shape {
          dim {
            size: 256
          }
        }
        tensor_content: "\342\361%\201x\334\367?\tf\204\323\t\031\370\277`\261#\261f\302\370\277\r\226\224FFI\356?\314\2477\302i\375\317?\334\022\331\344\240:\303?\371H\350n\364\007\354?\312<\272\264E\350\355?\374\303|\250N_\363?\0071\2143\313\343\316?P\260]\366\235\363\343?Oy\222\000z\236\360?Nd\264\372S\336\372\277\204\333\335<X\324\311?\005?]}\025\255\371\277\202\223M\374\017r\362\277\205\301\177\250\013\000\363\277\016+\t\033!g\367?T\365\246\263{c\340?k\203\357\263\361\265\364?\312\n\343\266\340\177\353\277\215\370$:n\025\325\277\031~\256D\311\310\352?H\217q(\204\213\320?B\274O\232J4\326?\033\330\272\274\201C\252?9\035\200\314\033\376\367?\332\273k\262s\t\366?\245\207\323Ihm\365\277tX\314QP\272\354?\306\326\026\264W\244\366?w(F&\315\231\366\2778-\270\333\303\234\264?\224\233\020\357\336\225\364?9i\021/o8\235\277r<G\207\226\344\360\277\242\271\rN3&\367?\251\257\202\333\356\027\333?cjQ\025\2553\361\277\321\357\\>\367\013\300\277\260\300\306\177\241\314\360?\251\030Cs\031\253\346\277\264%\244\230\260\270\337\277K\216\263\002\220\004\367?\347}\333&\004@\363?\261\332\025m\252~\351?\230\371\021a\325\305\272?\344\211=\372\312\353\353?\335\001\032u-v\353\277`\353X\343\333e\362\277o\263\334\360w\244\334\277\014~\235\343a\247\355\277\225\210;\252e\361\364?\324\2649\033\031(\363\277\024;\031`3\361\371?\200D ZQ\246\366\277P\371\025\234\350\250\351?\302\246\256*\253\362\362\277\317\373\036i\263V\373?4\314d^\341:\357\277\r\273\026m\001\246\362\277x\365c\334\371\367\316\277\263V%\214\314p\335\277\\\270\351\242\336\002\356?]+\343\007Ou\363\277\305c\035\320L\345\352\277\376=n0\200\240\340?-\316\356\307\312\025\367\277^\206\")O<\331?Q!\236m\201G\370\277Yr;a\212I\362\277\206\031+\237\301n\370?\307\327>\230\364C\353\277;\325\2377N\353\321\277Lq\377l\025\327\303?h\340\316\363{\323\265\277R\001h1\240\340\221\277)er8\003\230\342\277\213W\213\263\013\251\327\277aswS4U\355?(\250}\325\337_\363\277]\205\037 1\207\354\277(\245A@\240\325\366?\320\372\255\352\2365\307\277\324\230\206(\350\332\363?)\212S\254\013\213\326\277\250\216\352\353\221*\357?\220\300r\214\211\373\303\277\2613*\"U\244\347\277\367\203\033\026\250\215\366?\215\215\273\271\361\270\357?\357.\302\023\270\223\367?b\304\215-\217E\352\277\207\322\273\tn0\360\2770{\227 \3112\345?/K\304\316\313_\363\277v\362J\376\325b\332\277-\364\240\023\250/\345?\370\363]\030M\377\371\277}\346\244\"\254\241\352?y\334\216\014\202\267\370?N\220\303{\177\350\370\277\201\026\2006\224E\313?\237\235\252\257\207\211\366\277\302s\247\005Yf\363?\252\262\331e_\306\360?Oy\222\000z\236\360?8\360j\024\307@\372\277$\025\275\331L\332\365\277\321\035\362\356\215\203\354?`?%\024\217\347\372\277\341\260\215c\361H\330\277+/\314\370p\344\340\2773l\206-\207\n\363\277\256\033\226Dq\237\354\277\206\316G\014\274d\341\277\325h5\333S\223\371?\300Z\330\221\367!\343?\205a\325K\370\237\337\277o\241\025\245\022\204\373?\033aUt/\316\341\277#w-\265\025\003\317?9]\311\030\002]\310\277k\325\272fH\240\337\277M\231r&\371\000\311\277E\305\017\246+n\363?\320\227\366\251\005\030\364\277\nOi\214?\227\271\277\370mj\225\257d\360\277\352\177\376Q\324\303\365?\222f\250s\325\037\333\277\376\010\243\256\020\332\367\277\002\242\tzi\321\304?\315\3147cV\033\303?\036\333\213\337\212=\342?w\303\277\230 s\350?\335T\306\205\371\217\301\277\326\357p\313\236\304\334?\221\231\355\303\016\022\362?\240\376\271\021w\346\362\277!/`S\216C\363\277\017\314\320\307/\344\304?d\317lY\243\205\367?Zx\311>\337r\273\277=\227\363\331\033~\366\277\227~\224\346\303\362\371?{;\270d\340\355\366?n7C\013\002V\322\277I:\001<\000\353\372\277\020\236l\275\324>\356\277\211\3442\001N\240\342\277\t\222V3\366\305\361\277\373:\215\337\273\225\364\277\022@\261\267J\222\364\277\206nhPTx\350\277#\216&\245\206)\362?/h\230l\361\320\321?E\025\222\2101Z\246?N\361g\224\270p\335?\035}\235\035\252F\371?\2233Q\372\375\342\354?\003\244\366\274\242s\350\277\027\222\374\313\014\306\340?\375T\367\301\365k\366\277\025\177\272\331\323\336\263\277P\217\340\373q*\361\277,\242\242%`\256\364\277\330\223\236\375\260<\364?\311`\241l(\263\340\277u\325kp\272\"\312\277\017\214\217;i\357\257?\233n\272\335\227t\334\277\376q\260\353Ol\365\277/\013M\\9\360\362?A\232a\240\244\226\345\277\213u\211\210\022\237\261\277\030P\204\333\035\277\362\277\303\201\367%\001\275\362\277 R\306\205V1\347\277\301\277\373\030>\370\361?\203\023)\256\356\375\370\277\356\334\2705zC\365\277\311\262w\017ul\315\277X\212\202\030\364\233\361\277lG\204\244\313\356\367\277\344|3\343\306\275\260\277F\233\030\337te\314?\310\331\324\316em\324\277\277}\346\255O\216\351?1\347\252\211K\272\326\277\205()\340\"\367\351?\342\245\321m\223J\371?\346))`t&\367\277\333w\n\212\350\335\346?\370i3\271<\366\345\277oCe\217~\246\363?\272\306\024\215F\347\330\277\250\025\247\005\177\316\355\277\340\357G9\322\206\330?]\253Dw\257F\361\277\274\372v\321&\252\362\277\227`\335G+\020\352?\262\032\250\324m\022\363\277\231\262+\212\370A\371?h\221\005`\000\372\370?\207\251\220\007\022/\341\277\362Fx\236\017\205\327\277r\337S\014\351\321\365?\030\262\316\323\212[\344\277\357\265\260^\356\305\350\277\264\224\273\210\255\214\373?\006q9\220\277\233\321?\343f\037Z\235\335\327\277\322\032\276\234\236}\370?2\340\272\247\017\t\364?\204M\233\001\243\376\366\277\210\306\3135\325\272\367?NC\261Dq6\264\277\027j\331\343}2\255?\272\210\310\007o\314\371?\001\370\360\224g\271\372\277\346(Y\222G\010\360?\3264u\245R\006\366?\200%\036 \000/\372?\245`~\315\307\360\306\277\334i\367\013\345\227\345\277\372k\223\005L\327\354\277}\307\005\357\300z\355?\025MfgO\360\316?\017 \'\301\001)\347?S\3529\010\373\014\335\277\265>\376]s\025\343?\342\361\n\r\255k\330\277\355zK\206\361\261\353\277;\377\310-\203\033\350?\207\354f\3044\267\302?\244\"M\274\273F\347?\203\345;f\202Q\325\277\344o`\215U#\355\277eC\216!K\344\367?K\332\007\026u\226\365?\227\215\222\'%{\353?\367\n\022#\311\220\366?\244\316\005\276|N\371?\261x\251\307\311\365\302?\213j>K\021a\362?\023|\216G\004C\353\277\272L\265\217\036:\304\277\300\251\212f*w\371?M\302J\246\304S\366?\337\302E\264\303\034\345\277&\344C)\201\246\320\277\353\247\273\330\333\177\243\277\322])\022\326\227\325?5f\340\334[\345\331\277\222\213E\215\3669\325?"
      }
    }
  }
}
node {
  name: "Const_7"
  op: "Const"
  device: "/device:CPU:0"
  attr {
    key: "_output_shapes"
    value {
      list {
        shape {
          dim {
            size: 256
          }
        }
      }
    }
  }
  attr {
    key: "dtype"
    value {
      type: DT_DOUBLE
    }
  }
  attr {
    key: "value"
    value {
      tensor {
        dtype: DT_DOUBLE
        tensor_shape {
          dim {
            size: 256
          }
        }
        tensor_content: "\336W\356\316\355q\363\277\"M\221\343\337\277\324?TUA\230\366\370\347\277U\017\372\245#3\373\277\"4S\210r\321\364?\024\340\357\032;_\370?m\263\276\006\355\371\363\277\303bL\244T}\267?}\236\372\267]\350\361?\2037>Xl\301\350?q\356\232\031+\214\371\277\036ZR\317\250\013\362?\370\217\310\217\220>\315?\376\025\005\2055%\346\277;\340\364\330\226\326\372?\023f\307cG<\344\277O\344\342\223\037%\367\2776\365m\035\314\337\365\277\001\363\330U\302\306\327?\371L /jB\360?\365u\226\336\226\216\352?x\332\305S\222\245\245\277O\352\215\311\371\367\356?\2341U\371\221s\364\277\031\327#\376\034\201\306?a\305\306\344q,\323\277\307\2323\267\035\026\354\277V\212\357\304\235\336\345?\342}\023\365M\356\303?.b\323~\365\'\276?\205Nv\003\235\\\360\277\346;\022=\371Q\371\277\273Q\236k\022R\365?s\326[\017Ys\252\277Y\264\3750t\346\347\277\301\375f>~\325\333\277\2331\013\353)\213\304?\212\335\0275%f\325?qW\nzXi\371\277\372\210\'\255\022\362\345\277N\371\312j\301\300\357?\376\367\024=\344i\371?/y4L\316\255\372?##\345qeq\355?\347B\227\205T]\354\277\334\273\033\372i\317\363?T\211\"]\027V\357?\260O\345\034G\277\360\277i\326\340&\2704\371\277\241\211\024\355\332s\371\277\271d\373\212\243\010\371?-{Pqr\000\362\277S\312$~\346\017\361?\253\265\225Z-m\373\277Y\260k\264\353\"\255?\344=\235\364\t7\356?\264\341\021\302+K\303?\362\237\221Q\343\t\372?l\301sHB\007\364\277T]\352\356PN\364\277\330CEX2\240\364\277\307\0312\255\250\262\335\277\376 F\372\346\254\364\277\tS0G<\374\372?\267\237#\315\001^\305\277\273\2759\364|[\345\2779\374\007\266\310/\370\277i{\002\266,\270\350\277n\020*\231\212\352\307\277\351\3770{\005\336\302\277\267}\315\357\366\360\366?\213\024\306\326c\231\357\277z\262\003\211\024\007\347?\230$\342\311_\200\360?\250\035/i\362X\333\277\343v>c\345\364\344?\263C1\230\304\300\360\277\031\275\361L#\321\343?\252\266q\304\305]\363\277\201X\335e\315\253\323?\366\215V\3519\345\362\277\337\203G\363\024\232\363?\3445\315\257\251\250\345\277P\353\213..\335\372\277\273&\315\246]\345\365\277\017\342\032B\361\031\361\277\233.\236{\361\330\331?(\356\355\221{;\345?|\022_;\247\203\305\277\321f\306n\353hq?+.\367\211\311\010\373\277\030\237\277\256\372\230\323?\271F\330\313\0272\266\277\264\242\223\330\214\234\353\277f\270\016\343\212I\357?A\200V\324:\275\361?\272\002\304\333\000\231\302\277V\300\025\007jV\337\277\344Jb\241\353\311\306\277\214\311\201\267\363 \371?w\235H\270\250\243\362\277g\3733\274\310\006\345\277<\313\207\372 \251\365?$\005\214\3456\000\361?Em\345\251C\226\355\277\302\316JL\341\372\341\277\036ZR\317\250\013\362?\3438\321\304\032\341\371?+\253\374g(+\347?\200n\017\007#\315\364\277b=\020\332.5\333\277x\256+\257\261r\325?\2513\377EK\236\367?%>\266<t\260\356\277\245\312eE\3337\371\277K8\022\034\r\r\366\277f\263\207\273\257\300\360?.\236\027*\2542\331?\267\025\355K\247\242\336\2779\346Hh\370\347\357?\334\224[\261l\350\365\2773L}hwS\370?\nH\247-$\033\353\277\016m\025ae\016\364\277\222\227S\363\016z\350\277\247w4\354\302W\300\277:\327{~cl\354\277\254j\026bg\252\234?\302\005\t8mW\341?k\375I\311<Z\364\277I\"b\320N-\357?\321L\177\302\201<\365\277\233Th\027KF\370\277\314\232\344\265K\351\363?\264\331\301{KF\350\277\330\361\337A\332\215\362?\027\346\320V\027\227\324?\261\334(\235\364\033\365?\3709~\007\305\276\366?]\017\006BB\354\366?\252\360\277)\002X\352\277\345U\010\260K\204\360?\346J\022{S\342\336?<\310\203\345\257p\341\277\036\360\022k\242\031\360\2777n\354\313v\327\217?\314\342*\016\332\005\324\277)\300\212\374\376x\361?o(\270\201\271)\373?\013wM0\351\217\320\277\n(\244\212\233\\\361\277Xy\323a\237\373\370\277b\346n\334\264\177\367?v\2307\200\245\200\350\277\003\312\371K\316\000\347?\334\324\024M\303\360\335?\nx\023%\032\201\331?)\251\024\274\017\250\321\277\312\346(\221\007\377\362\277\375\n\267d\211\355\362?\202;^\3265\257\353?>$\306c\372\373\341\277FI\351v\367\"\355?\000e>sP\013\370\277\373(1\247\030\177\364?1T\002m\036\374\363?G\320\253>\230/\264\277R\265\226\351\017\302\346?{\213\020\354Q\013\367\277\324\243\215\021;\220\300\277\3416\263\252\361\365\223\277\222\223)f\235h\334?+\325\2212\352|\362\277\227,F\030\246\010\347?y\022\372\216\016z\370\277\242\324/\264C$\325?\034\351\254k\246\262\356\277\334\223\353=\356\375\357?\210\356\370\236\267\237\365?\337w6z\212\375\342\277\227@LM\n\233\360?\251\020\263\205=\332\363\2779\235\204\254\265\\\266?W\210\362\021-\313\270\277X\257\020K$p\356\277t\356\323\273\177}\371?\023\352\360\324\340\204\327?\351\243\0339Ph\334\277\353\n{\332\230\316\332\277\021\320&Y\350\223\313?x\270\017t\017\277\372?\372\263\260\315`\005\344\277\021\374\n\235\023M\320?\260\355\231OT\010\350?\021\374\n\235\023M\320?yh\243u\343&\356\277\370\312Q\275nV\373\277\227\245\315;\370\335\313\277d\275\327v\'\023\370?6\375z\305\231\246\351\277C\373\357C\350\236\372\277\021\362\304\332YZ\373?y\270T|#\214\360?\314\023\263n(!\361\277\003\226\350\316:\033\371\277\247\244\272\010\3132\363\277\244\206\331\302\213\337\347?\325\370\227\336\372\255\367?\362\234\035\205?\204\350?\334\033gO\305K\333\277\303WJ\374\021\275\362\277MN\256I{\245\312?&\357\t\373\323\360\363\277\246\355\275k\250\327\362\277\354\367\211\261!\036\371\277\255\331B\214\247\263\343\277 1\241l\372\"\243?I\353\350\354\326\235\345\277V\206\031\276\3357g\277\034\213M\203|\000\350?\212\335\317\220\276\014\344?F\'\362\301\226\005\370\277QX\343\305\365N\303\277\227<\355\356\347\016\242?\365Db\210n\250\364\277\275Z\253\317+\266\361?\350+\r=\377\010\341?q\'\231|\016\350\340?\333\252A\355Bi\372\277\202\220\313\302\027A\335\277\250a\203\221(\201\360?c\265^\330?F\362\277\224\225\340\'\362e\356\277\206/F\000@?\324?c\324xf5d\357?\364\016\313F4\"\372\277\005\330\006\242\253>\261\277\320cAh\360\255\361\277\354\365H\365\216J\342?&\373Zs\036R\373\277\235<\036\022j\031\373\277\014ZQ>$\226\346?\232\306\300\211\336\332\343\277\252\036\t|s\221\306\277\262\031\270z\017\207\353\277u\256q\306\2416\344\277\277\364Y\332dq\337\277mL\247\t\013\355\366?\246\273\004R`\302\347\277\027y*\321g\317\365\277\032\325\345\360\306\020\355\277\375\277\026\226L\253\372\277\323\310->\034\000\366\277\245V-\314\325\264\362\277|\201\303\314,E\373?c\326\251\333z\373\365?"
      }
    }
  }
}
node {
  name: "Const_8"
  op: "Const"
  device: "/device:CPU:0"
  attr {
    key: "_output_shapes"
    value {
      list {
        shape {
          dim {
            size: 256
          }
        }
      }
    }
  }
  attr {
    key: "dtype"
    value {
      type: DT_DOUBLE
    }
  }
  attr {
    key: "value"
    value {
      tensor {
        dtype: DT_DOUBLE
        tensor_shape {
          dim {
            size: 256
          }
        }
        tensor_content: "\027\207F\232\223\r\233\277\235\221k\000G:\346\277Y\224Stz\372\362?4\021/\200\227\252\330?\312:\354~\270\327\371\277\341\211\205\'\2704\333?\336\260\022*\332\334\345?vr\335\327\343\206\323\277o\327\242\032\252\024\341\277\264D\256\243=\266\306\277\215\235I\355u\024\361?\351\261d\256\314\240\355\277\0010\263\332\023\331\204?c\322\265{\033<\373\277\0140\274\242_\242t\277;\260\353\277\203\026\364?\215\032\351\345\355\370\360\277\2758\010\261\'\234\345?6\266$\360\024\333\370?.}\370\210mM\353\277+N\025]\2007\367\277n\0079\023\000\364\340\277\270\210\n\345\227\234\357\277p\216\245\334\360\256\356?e\304\341\302tQ\333\277G\307\271\n\262&\336\277\207\334\020\036\003]\335?\032\2022)/\204\364?\'E\226\206\264b\327\277\0248\334\2542\321\326?\371mrA*3\343?l~\004\356>b\350?\307E\365,\222\277\271\277_\234q\202\365<\357?\252\0030\234\'U\345\277@\232\245\0244\264\347\277\316L\330-i\254\350?\207\334\020\036\003]\335?\n\202B\276kC\346?\r\251\302|\223^\354\277\224\257Nu\225\262\367\277{b\226\000\354\315\344\277\331\027b#w\022\360\277\365\234\364\273Zo\353\277\242\351\233\337\341\036\364\2774\214}\016\031\300\357\277\214\211\340\014n\323\334\277gj\264\245 <\371?.9\306\355\330W\364\277\003\017\365\373\347O\315?%\341\031\204\256\216\333\277\301pO\324l\351\254\277\235x\246b\334\356\372?H\34622\255m\322?2\372\203B\025m\340\277\274$(\237\251\314\360?w{\256\324\347%\243\277\327\325\353\317_\354\341\277RJ]q \271\330\277\277\271{0j\261\346\277O\303\016\032T\244\373?\326\364SJRO\353\277!{\334\237\214\346\371?x\232R\261\030x\330?\347\017\007\311St\361\277\034\215G\n\301\216\361?t\036Y!\301\214\360?\314\244\345 \217)\370?xP\221\230\032s\335?\370\216\307Cb\234\313?\370\205\221vt\205\326?o|\200\341_\001\314?|\242\234e\275\354\275?\315\'S\255\226\200\337\277\210\251\257\371\250\017\372\277\234\210\376\'b:\347\277\356K\314\352\246\213\305?\234\2300\320~/\347\277`k\361\221\361g\372?\326`\267/\2169\372\277\200\205\033\352O\264\306?9\200\013\256\3666\346\277\367\355\304\275\307i\365?\340\030\347(\033\375\347\277\"\227\321\243\024\024\272?9\247!\277>\327\316?FB\024\254\235\033\363?\010\343\342\246\337\026\341\277{P\006iY\316\364?x#\345.\341\316\371?\223T9\241|\227\352\277\262w\033\034\207\221\372\277\201;\270*B\234\310\277\005\263\203\373\356\366\241\277\256<Wi0\336\325?\226\3135\376\361\022\277\277\30049\304\373o\361?3#/N\312\000\363?\273\365i\240\032\016\365\277\024\034\016\036|\245\372?`\223\246Q\tx\367?\331\234\302\341\273\266\366?o!\372\246\377\t\362\277\351\330m;~-\343\277\221d\352\n\276\362\240?\016\300\321\234\306d\356?\351\261d\256\314\240\355\277\357\300\021UQ\000w\277\273XTY\202j\344\277Dc\210\021\356Q\364\277\266\304\0341\310_\360?#G\357\333\213h\332\277\301\202\266\3333\315\373\277\004|8\246}N\373\277\376\243\247\223L\"\251?\320\344\270\005\230I\365\277C\233\334wD\004\274\277\020]\241fa!\221?j^\322\016^\\\365?\203\030\272\016\033\276\372\277X1\205\305uV\311\277\347\274H\016\021\306\361\277\336\353\017\010\332\375\372?\220\201\'9\014\005\302?\377\203\274\226\r\233\350?\3076v0\247(\342\277O\332u\310H\345\366?\240\3431NQ\270\325?w+\362.\200;\371\277\360\303\330\\3S\313\277\257\257T\210\323\315\357\277j\317&\364\303\223\332?\220\201\201\010\267/\365\277Q\303\356\206\224Q\360?\033\321\253\026\256h\365\277\032*\243\001\202\333\371\277\310EZ\376d_\363\277\366\025\nG?#\370?\265\325\372\013K\330\367?\250!pY$P\334\277\362et\306nC\362?\225\311M\316\334:\366?\010.\004\270q\362\332?>\257[2\t\272\237?\361\366\365\360\026|\315?\365\254\226\232\027\273\345\277\311\345\275\326\030J\371\277/\254,h\224\251\361?\373A4E\017\240\351\277H{\240\214\347\032\324\277\244i%\207\304\201\357\277\334\3129\341s\253\332\277\206\270\367\251\027\017\345\277n\246L\311\341u\274\277\202\241l\377T$\310\277\360\267\314\376s\027\342\277)\377$\177\020s\330\277(m%)c\034\370\277Q\202\036\274\353g\371\277\271,\305h\250\342\365\277\t\301\356\365\327=\344?v\235\300\265\245\316\371\277\377]\003\005Vy\314\277\375\351\350\214\241\260\354\277\372PJ\204%\273\347\277\242v\t\236\305/\372\277\240s\265b\262\241\364\277J\216\302\215f\325\357\277\032\276W\304$\r\354?\334]\300<).\332\2775\344\202\026^\006\365?xZ\356\362Vl\342?\245&Gp\206\221\367\277\023l\010g\013o\372?O\250$\373s\272\253\277\300\330w\335\312\024\334?\203\252\330\246\251v\360?\031\265\200?I\272\363\277k\360U\332{\316\332\277/\237t\030\364\230\343\277i \323\371b\344\362?\320B\nm\345\326\326\277i\207M\312U\270\325\277o\323\332\347\316q\340?\215\207$\305\360\003\344\277\002\377\352\221\317]\324\277\202G\266\322\361\356\343?\336\326\263\023\263\342\300?\262\230=}\277\220\343\277\225^\310\214_\270\373\277{v,\3712\235\333\277\r\306z\003\370\177\355?\305+\361\030u\307\352\277\357Z\357\256<\342\372?\245\252\303\340\024\207\371?;\222\231$\356\211\333?\367\307\253\262m\326\365\277\337\002\347\354n\225\360?\021\214:F\354t\355?\212\006g,w\356\364\277;f\232\335%h\363?\216\316\311\335y\351\345?uB \221\224\243\300?\365G\"+\331\266\331?\351r\003\200\242\245\361?\227_\270/\356\034\265\2772\374\211\243\311<\367\277\271^\313N[\241\366\277\313\214\210&\375d\347\277\270;\037\027\376\266\361?U\020\322iM\000\344?\022D.z\225\007\325?p\310\"O\353\351\370\277\273f\366\240\320p\347?\316h\027$P\334\325\277\"s9,\226\211\344?\337\214PT\245\312\302\277W#\372\364u\276\360?\364\336\364.\332\367\356\277\370\225\267\312\241\354\345?\365\023[\204A\217\326\277\347a\325\001?)\373?\221MO\244\346J\361?\310\262\323\242\257\334\363\277\256\340v \320\335\353\277\216\207\3602\375r\314?\275\014\0174\245\004\335?\003=\303X\321\321\303?\331\224e\036\356\002\371\277\234rh\230\254%\331?\244>\222l1\201\367\277\264\261\364\245\237\241\343?(\317\371\"\274\345\365\277f\274v\213\005\213\266\277\335\303\200e+D\352\277~\303!\272\204\335\320\277\t\315e\360\230\313\372\277\360\257\013Y\365\232\352\277\010\372\361\306\022\035\343?\031\244\372\022\326\277\364\277\017\242\361Xl\333\332\277\344\014\225[\270\306\351\277\335\270\265\235\3209\373?\334\010\260\346_\003\373?H%t\315\027\026\363?m\026\314\014My\314?\031\231)\241\203n\365?wK\376\320\251\247\360\277k\021\221\322\264\300\264?\232\345\260\300\221\024\365?v\231\232*\303f\340?\325\310\236\034\301-\341\277\250t\252\236\366\342\346\277\030\004EVX\341\325?\367\330+5\351\211\344\277~\203\360\234\302;\372?"
      }
    }
  }
}
node {
  name: "Const_9"
  op: "Const"
  device: "/device:CPU:0"
  attr {
    key: "_output_shapes"
    value {
      list {
        shape {
          dim {
            size: 256
          }
          dim {
            size: 3
          }
        }
      }
    }
  }
  attr {
    key: "dtype"
    value {
      type: DT_DOUBLE
    }
  }
  attr {
    key: "value"
    value {
      tensor {
        dtype: DT_DOUBLE
        tensor_shape {
          dim {
            size: 256
          }
          dim {
            size: 3
          }
        }
        tensor_content: "\234\330A|\274t\313?tA\334$\275A\342\277\303\2013\202W\360\261?\353X\210u\353\330\357?\300\203[\324\027\273\334\277 \031\214\303\221\232\354\277\364\\\217\357\315\343\341?\256\333\0068N\005\307\277\037\2654.\357Y\341\277N\031\344lIp\001\3001n+\311\221)\336?\004y!/\037\357\001@G\204\250O\367\371\351?\251\300P\331(\034\322\277\202u\027\367\324\316\350\277\366y\376\374\337\203\356?\032H\260\376\013w\330\277}\346\354.\362A\354\277\313\335\223\016\345\021\336?$\210\217\025\236d\340\277\314g@\000\032Y\320\277\335\031\033\216\301\205\340\277\332\036\223\314\355`\337\277\225\360\230\205\275\254\353?\026\2175B\237\346\330\277|_)`U\336\334\277\320\0351S)M\346?\317\014?\002\246j\272?jc\343\277?q\342\277PO\340\322H\277\311?\3004l\203[\030\266\277<\230\354Z\373\261\337\277\224\031\352\274x\353\327?c\027\031\2260:\376\277\242\255\344\215\224\020\300\277\375\211+\364{\351\001@\312\007\246\266yL\336\277\262\221\206\234\036A\340\277\373\361\r\032$i\352?\220\"\250^\010D\345\277\007\362\2610\301\210\342\2777\345\006\377\221Y\361?3\276\225\262X1\321?2\251\232\037]U\341\277\320\273N\235\001\231\200\277.9\256\266\337\320\340?\363O\007dK\023\334\277\222\031\322\340p\014\327\277%S\310\321\312\026\361?\034f\267\r\266\330\336\277\312\266\343\023\201\261\356\277\242=.B\336;\367\277)\242\037\202\3263\370?\037:w\2333\204\352?\253\237^\314\\\202\360?\314g\234\020\237!\341\277\226N\006\3312j\354\277\276\036\031\346\313L\361?\215\027/\264D7\342\277/C\315\254>\241\355\277\021\352\223\233\0142\367\277\231\325\213\223\271h\342\277\252\326C\346\220\275\377?\203\232Fa<\252\325?N\020hR\223\223\326\277\210\t\364U!\267\310\277\217\245s\256\347\037\331?\306\333j\311\310\237\336\277\245A\243z\021\274\307\277\377\340j\217\377z\360?ou\002\220\354\221\335\277-\345J\323d\246\355\277\220\372\220\256Z\001\361?*\216\2047\314\205\340\277\024}.\241.\344\355\2775\331W\236\252\307\360\277\323\233tp\002\231\r@\207\003\373\275\036\037\353\277\273\3101\304a\351\352\277\233\375\343\315\362\252\320\277f\311\301\202.\303\361?{\230\370\244\360O\354?\241\336\264\264u\342\326\277\353i5\3218*\352\277\013\211z0\222\364\354?q\215\312\300\262)\340\277[\241\037h8I\350\277\217\366\341\364A\275\354?\252\271\371\214\211\016\341\277\342)\024w\276\212\347\277,[\351\'*\327\255?\207\275n\026\213\310\301\277\020\236/\344k\314\204?\0277\311e\371\336\255\277\007\317\245\324\320q\354?\213\277\366\361\032C\333\277\265\r@\346\276\337\273\277>\\\037\325\313#\324?;\324\302edV\251\277\333$\376_\277_\347\277:\360\257Byd\002@\007\351B\376\272\352\333\277P\035@Ff\'\350\277pm\355R\377\211\342\277\367;\273XE\002\363?+\215[\376j{\355?\037\274\"\235\300A\342\277Rp\225\311\306\272\347\277c\210\216\256\270\027\362?\262\3503,\222=\342\277\355\267\315\315\232o\357\277T6\027\216v\234\360\277n\322iS\021\211\342\277\206\\<\376\0007\370?\200\326\225\315\322\252\356?\210g\034]\306\031\342\277\223DZ\201Q-\351\277`\212\215^n?\327?T\353\322\241\233\r\331?\335Y\237\324\233K\344\277Q\230\226\276G\356\317?{\234\321\250\304\246\331?pD\311\370\221G\340\277\335b\317\022Y\t\363\277\031\'W\351\200\255\010@\370\330\254\001\036\014\326\277\346\276o7G\263\321\277/\340!T\326\211\342\277\317_\327\346\270q\344?\202\250\t:s\257\352\277\233/\233\361sB\263\277\376\310\266\271T\372\357?GJ\336\026@[\360?\260\364\025\346>K\341\277f\002\005\344.\371\353\277\017\255\375\322\014<\306?^\0038P<~\334\277,jA\333\010F\250?\3357I\372\rh\356?\216g0?\215\376\327\277 \351\033.VC\354\277\263\214FN(/\355?\341\236\'\304\001#\324\277X$\031n\350\355\353\277{\231\353\370^\256\357?\205\277\365\'Av\342\277cI\215C\005$\352\277\014\376\030U\002w\374\277TuP\274\2750\340?\265\264J$y2\374?\034\256?\236\215\232\346?\320b\205E2K\307?\333%O\013g/\355\277*q^\275\002d\352?G\274L\231\216\352\325\277\2661\310+&:\350\2774l\237\357\323&\313\277\313\336\024?kT\332\277y\321P\273\0201\336?\274\334\341\276W\266\310\277\262\211\274\234\374v\336\277\233\360\206<\323\024\337?\001>\027\0205\356\360?\243\236\261Z\321\350\341\277*\371\330\022k\363\354\277\t\315\203\363nA\356?5w;\326\256\233\335\277\364\353\377F8\210\352\277\312\305\337\201\257L\360?=\tS\261f\003\333\277\317\252\301*V\361\355\277/3)\024\014t\363\277\221\331F\314E\021\366?)\244$\'U3\344?\223\353}\233\177\r\354?V\312\003~\200\'\314\277\216\212\241\357yO\354\277\205\227\000U\035\215\310?~[\353\265iC\304\277\032\255\277\212\256\363\300\277\337\316\371\305G\242q?zrYWi\"\306\277\322\025\376egH\267?\211\256\213Z\347 \344?\010>\226T\377o\341\277\274i\200\320\343\342\332\277\236`\325\211:\344\307?\241\200\037>\221C\341\277(A\352B\202\270\265?\305\037\307x\264*\005\300\254\026h\247\'\242\023@\362\310\026\241\334<\324?\212$F\232\300\020\343\277i\347)\021Nv\323?\200d[\320\025\177\340?Z<e$3\277\340?\352\375\016T1\037\276\277\207\021\245\231\220$\341\277{\\-\255\372\335\351\277r\231\'sqN\340\277C\232\266\334\252_\363? \333\317\224\307p\366\277\326?\257\351%*\342\277R\036\221\323W\316\376?\303\276U\275\302A\356?\032\346\200\037d\300\314\277\232D0\021\344\301\356\277jX+Y\204\234\346?\\\301L6\201\361\326\277\206\275\324\'\203\232\343\277\025{\205G\251\031\353?\"&\331p\304e\213\277\314e\243<\363\341\356\277\224\3363\232\340\240\344?\2151h>\206\007\342\277\256\315(\276k`\333\277n\032\223,\007\246\324\277\355O\364z\366y\313?bf\365w|\027\320?\252\255^\343~j\350\277\027UgB\375\211\342\277T\035\241k\313(\363?pu\007wj>\346\277\032F\314\202\365V\331\277\t\t\262\301\345H\360?\330Q\222\243K\230\307?a\035\262\315\250w\342\277\306P[\023\366\276\273?\250\250\334\372\363\237\244\277K\217?&6\353\304\277\371\340]\372\021\205\301?\355-\236\373\306#\307?\275=\356e\333\343\341\277\331Fv\324\027;\272?\343\271\032\274P\312\361?\037\n{~\276\037\341\277\345[\257UI\\\357\277z\225a\343\365{\365\277F\236\206\351\353\020\340\277\210\330\346>\001 \375?\013\221\354\2050\036\365\277)\266{\275L\322\212\277\014\371\262,\267]\370?e\203\013\333\336\210\316?3d\211\361\345\004\361?\374\000\234o\236\244\353\277y\227G\213\3228\374\2773:~Q\3226\021@\374\\\325\310\272\035\327\277\232V\"\321\251C\000\300f\231\034g\305\223\320\277\346\223\r\253d\323\003@\274B\232\3449\266\357?\215\033?\230XK\340\277\342\2761K\001a\353\277\303\302\216\035P\275\356\277hF/@LB\330?__v\032a\222\354?\217\333]\213q>\327\277U\257\003\3528\214\340\277m\352\355\327\351\205\346?\016\'\032:n\266\361\277\177$Z\036\3568\001@n\311k\267g\313\263?\247\r\320}\222W\363\277\230\274\351?\025\375\317\277!c08\200m\370?\314K\025\177<\213\356\277\271\355\306!\240#\323?7\244\334fP\304\355?\373\326&\tuh\310?R>\250\233\033X\310?\006\330n\311\241\303\324\277\034\246\355[\266\353\340?\271\366\026\314\3000\340\277\210K\270\007\366\346\324\277\242x\225\035\303\035\372\277\265\221\317\366\377[\000@\220\360\266\325T\260\347?\372\354t?#\002\344?\222\026\216s\007\241\327\277J\221\230\023gl\340\277g,Qx\315A\347?3\r\006\005\311q\340\277\300\252\036\243\021\226\341\277\033\2216\001\336\271\361\277\263XD\260\243R\341\277\342\332\267[{(\371?_W\313\020\331f\000\300\341m\326\327\203\214\341\277\014\201i%xD\005@x\004~\347\361\214\313\277\226y\310\266%:\341\277d\003\177\273\303v\341?m\254\304)\037s\354\277\r\2236\026e\342\262?\342-\257\017\032\\\357?!%\207,\357\366\331\277\252E\036\217N3\325\277\350\023L\024K\311\344?\273\0161\203\300\311\367\277\234$5\020\364\211\342\277\036\265\006\377|:\000@\026\336\211\353\350\252\343\277\350\337g\261W\\\003@\320\270h~\322\\\344\277{\033\313\377\275;\344?\322/\344\213\217\362\301\277w\031\027\317\032\277\344\2778\351H f\254\354\277\342\034\327\370\355\211\342\277h\301C\374\221\232\365?$)U\2131\034\333\277\373\354H\337l\203\342\277\356\321\215@\017\325\351?p\221\320\302\2369\347?W\360y\204\006\020\201\277\212x\211A\275\205\352\277\2017\310@&S\347?m\214I1\021\343\324\277\254=\010e\350\375\344\277h\014\0076\340u\316\277c\361\346\357\334\333\342?\211\021\345\017\227m\253\277B\352\024\274b\247\367\277Hhh\334\253Q\005@N&\241\262% \314?\323\221\322\003K$\350?]\257/\200\214n\274\277U\330\314\222b\300\351\277\3606\371\220)n\265\277\232>D\300\355\331\341\277$\306\0248c\364\331?\235\277\245\311Q^\340?k\253$T\006q\306\277a\035\262\201\265^\337\277\252/C\n\255\026\220\277\201Q\326L-\230\340\277\024:\263\"9\217\323?\265\360\212\330f\330\340?]\307\270\3735\204\342\277g\013\304t\242&\322\2775\227\206|\034#\307\277\353hMFk\032\364?\370\237w\344\254O\337\277,\270G\034\234\016\361?\037\362m\\zC\340\277\213\037\316k\210\'\356\277\311Q\r\364ew\003\300\322XV<~\"\023@Y\210\t\320\343\023\302?\323z\027\375Wf\343?\327\334\247\2622\324\331\277\234|\000\366M:\336\277\231WH]\311\201\347\277\216\234\022\270 &\004@\221\245\223\335\"\264\341\277\237bA\265@\333\350?\353\345\233\213\321\026\334\277\255\204\204\244\350\300\344\277B\354qzMi\000\300(\3659\307p\305\336?\220\204\230\364S\266\000@\200\345M\236\204\354\361?\276\345\324aN-\342\277?\325Q\177]\025\357\277\352\306\004\352\335\355\357?vLn\022\270m\340\277y\227\026\311\327\215\353\277\006k\251\331\273\255\264?V\261\300\354\007\025\342\277$!\026\3556>\314?E\035\033Ea8\267\277\306V\321\377\013S\253\277\325%\320f\327\036\301?\336\016 ,\227\316\003\300\032/\354p\210A\340\277UpUj\223\377\010@\320+\257\334\035\316\321\277\303\361\"8J\315\340?\307\233J\006\330\364\234?\331\375Z\213DQ\360?d\022\220\354(\014\342\277\\\333>\335Jw\353\277\237\341\016\245\264g\342?`I\360\245\310\270\330\277\331_\203QY\217\334\277\263\036\215\233J7\372\277\271Gc7\004 \371?\345\372\177\365\224+\360?#2\020{\002\362\367\277w\021\223\3719\262\366?\235\276\262^8\322\355?v\212\240\315\004\241\326?\261-\354^\023`\264?\323\364\273\355=\317\334\277\207u\353\3541\350\323\277{\347\024\264\230[\342\277H\334\301\033\204\234\345?\314\037\320\234:\332\357?\205\237\330u\373S\335\277\302q\335e\312q\354\2772D\004\313\205U\360?\202R\226@\021\322\341\2773\312\213\036F\241\353\277D\024\364\2442\n\333?\315Jw*|#\341\277\274X|M\304\024\310\277S\023\025\310\264\177\316?\351\nw\030\222?\323\277\363\341\377\275\233Y\273\277\201R\001\256K\006\256?\270~\322&\003T\332\277}3\305\306R\224\304?\206\253\370\2737J\357?\234\260\373\244\016\372\340\277\217\3778\013\371\203\352\277\357 \275\354\351a\333?\246Ir\373\3424\251\277E\'\257\000@\262\335\277\026\305\3411+ \324?-\350\371\264\030\344\336\277\376\022\250\254\244\353\267\277|8\300%}H\362?@\371\364\250\340\005\342\277\245\373\331\266j\376\357\277\305J\3565\232\020\351?\372\253\217\236Ek\314\2778\027\031\353y\327\350\277\320\347\037\226\027G\346?I\366T\177\225m\321\277\"\006Z=\333\277\344\277\342K\364\370\236\320\353?\375\361\224]z\224\341\277\246S\353]\2530\346\277\227C\036\346\374\356\343\277GS\334\201e\211\342\277\226\020\355\313\301\225\360?\'L\343\312\264Y\355?\373\351\332r\334\366\330\277\262\216\033D\023\310\352\277?\014\362\341\307\315\351?\227\236p\020#\375\274\277|-l\366\347\236\353\277\221\r\310\321\2705\361?\236v\356\363\317\022\340\277\236&\344I;\234\356\277\316c1\275RWA\277:jm\344\236X\332\277t\3622\373\321L\315?\342,\024\232\032p\337?N\257\346\177\315\306\340\277<\3654\372A~\321\277\320Wn;\366D\346\277\267\344\220\3144\246\375?\224t\227Y\272?\315\277f\262\350W\365t\342\277\236\242\\\350\222c\340\2771Z\3374\234H\356?kK\202\260?\263d\277\252=;:\033\324\362?\353\244\260\377\232\312\344\277\033\226Z\240\n[\002\300\0264\323\252\224\253\345?\334b\214\244\323\022\002@3/q\246\277\233\345\277:\274\277\346qw\375?\016\022F\260\001{\317\277D\013\264\nRa\342\277\332\207\026\357\244\250\320\277u\023\003\210\237\271\351?\224\025WR{\307\331?\206#\354$.R\262?\330\2409d3\022\340\277\020\010/\030-\026\370\277\362o\213\373tw\010@\021\206\274\347\257\257\240?~D\223\311\211\225\350?\304H!U\000\270\264\277\024\030~\3321\313\352\277.\322~%D\301\266?\357\rx\217\373\371\340\277\216\350e\374\237\230\310?\257\0333\030;F\366\277\271\254V\341\003\033\330\277\307\334*4\223\353\374?z\241\257Go\303\310\277\261\035\246m\013r\342\277\346\270bm\321V\341?\262\313\017\346\030\316\343?DOL\237\027s\330?\310\273\316w\250\205\355\277\217\246m\rD\216\340\277\342Y\\h\334\n\337\277\326_\241Vu\236\353?,00\005\372\335\346?\256\313\360k\324s\270\277=\032\232\335-\220\350\277\022\235\317}\342A\360?&\272\246\202;\206\334\277\0314T\020\221m\355\277\336\265L]\016\245\360?\362\000\203$\244\037\340\277\342\206OO\377H\355\277DF\367\257$\313\340\277^ei\361\213\034\342\277S\344\3509PT\355?\226\223\030\346\247\212\361?\232#KB\310\317\340\277;\322\323\024\237\366\356\277\335\016J$+\324\354?\rI+M9g\331\277\364\334\\kY\017\352\277\361\322I/\247\323\340\277\033\233\306\220\260\366\310?hg\307\217q\271\337?\3148+\356n\020\346?t\376H\213[\034\317\277\224\204\256\343\031\006\345\277\034\370\355\354\375Y\311\277@=\346\352\022\227\340?\024K\337X\200\303\256\277\301s\322\211\236\300\337?qR\225\001\300\310\235??\256\270\241\030\277\342\277]\000\361\023\355\254\315?^hJ|\215\213\341\277M\251\'\2668]\243?\270C\357\032C\t\360?\235Mw,\316\256\340\277nO\200\200\241\223\353\277\334\224=\212\022\356\260\277+\372\217\250\251E\342\277\301\375\2360*!\331?=H\251b\315k\345?k\335**k\325\270\277Y\355\206\013`\340\346\277\347w\265f\000\363\323?ds\336\353\340B\347?\022\016\314reZ\350\277\261\225\311\373r\206\327\277\243G\035\320I\351\365?f\240\344\320\332\226\325\277\302E\333\364\363n\334?\262\210\312^\361\346\336\277\322\262\003\\?\007\317\277\216(\230m\243\304\312\277\272\026h\245\265 \200?\220K\2401S.\316?\364]\202C<B\345?\r\024T\001W\300\320?\324\\\010Vg\016\355\277-t\237\315\274\034\327?\r]H>\264\315\311\277\366T\220ZWb\323\277H$\24404\334\312\277\262\222Qa\3429\342\277\200\340 \331\267\321\341? \002nm\335\032\355?Cq\263\r\357Q\321\277\265\252\367\211]\236\354\277\224\357,U\230Q\360?\371\022\245\367\244\355\330\277v\304\363;\236\220\356\277[}\\\320$\013\347?\235U3`\247*\340\277\370\001\004I\304~\341\277BF\013\'\025\237\347?0{L\203\370K\260\277\350\\\363\316\354\376\351\277*\240\227\035.\024\336\277\262N\256ado\271\277\260\':\362\211\010\343?\226\200\224\305<\317\340?\361\030\0072\345\210\221?B\341\243\031\035\233\343\277\304\003>]\035\031\354\277\360\352\304}\014$\242?;\213c\303\"\243\357?W\030\335\205S\023\347?\364\305N\360\311\302\337\277\215|f\355\300\260\341\277\277\332\264]wx\250\277\277R\263>\300\322\362?\037;\273F)\037\343\277\203\020\257\022 |\354?\233Pe\321\352\272\327\277hm\330g !\352\277-\256L\333OS\360\277\306\334\rU\360b\316\277 \214x\360\203\332\364?\231\226\350-\277\021\362\277\337\226ko\251Q\374?\337^\231\225\023-\324?\265Q\3571e\361\347\277\234\321n\353\001\212\342\277Q\231r\224C\343\362?\321$\3631\206R\361?\310KA-</\340\277\263\322\370@\310\316\356\277j31\356\372g\343?4\232\314\t\317\031\342\277d\363p\311D~\330\277\225m$\207>\265\357? ;\335\310W\306\334\277\371:\315\024rn\354\277\2626f\314/\016\342\277\277\324T\032\321\'\342\277\330\374$q\250\315\356?6w=\232\245\000\362?\371\016\0020\204f\341\277b\306SN\344\261\357\277&\3067t\234R\353?d\177\004P#\000\323\277s\265n\260V\033\352\277l6\n\352E\203\355?D\315\223\320\347\240\307\277\375\351}\225\030\235\356\277\352\277\245\373t\235\355?\346<\362\220;\310\340\277\317\304o\237[\263\350\277\275g\264b\212e\365\277\2131\204\031x0\t@`\200(\211\351\363\312\277;\247\253\210\217V\314\277\027\3653\0369\177\361?E\026\333\313&\213\326\277S\021\375\017&\355\352? \324\033f\200~\330\277d\247\036\305\252 \350\277\213\273\177\252Er\361?\205^\332U\247\351\336\277\331*\217P\362~\357\277 \327\370\354\315\204\304\277G\253\335\257,\365\336\277\350\301\273\212\032\363\334?\'\234\311\276\353\356\334\277\037\220M\333\354g\342\277\200\351\205/\000\322\352?J\326\334\377y\351\342\277\375\253\370\257U2\342\277\037*\215\276\273\316\357?\311\000\372_\207\247\342?2f\336\034\177P\244\277\230\037\351df\267\344\277\252\375?\333P\233\347\277_\337\362\253E6\342\277\237b8\004\272\232\362?|f\032>\256\240\320?\257\226\306\231\231\230\341?@\365.\321-N\343\277\262\275\030\356\246G\356?\361\240\000\252\004\200\341\277\3360N\204\267\020\351\277:&\356\370tD\333?\372~R\010_m\342\277wL\352Q\356\277\305\277\225\233\340\354\206\317\363\277r\037\375\264X\315\001@\206\216\256m\314\006\310?\036\\x\376\336\254\340?\025\303\016\215e[\330\277\030S\330I0\312\330\277yz\310)\033\302\352\277\352-\025\357\017\240\312\2773@\013n\2555\361?g\226\200\025B\007\340?\007\n\340\225\346\037\325?\334\315\357\356\201C\350\277\000b\036\'P\304\360?L\226S\212C6\334\277\2345\212\255\017\257\356\277\225U[\252\376\264\334?Jd:\313\2118\271?\346\227\200-\020;\342\277\242\246\364\306\334\014\360?Z\275\312\341\377\246\341\277\020\025\375\347}\022\353\277\234Z\2624~I\360\277>o\373\264\330\327\374?\327\220sjp\247\305?\353\312\274\354\255\370\304?\2675\035\027z\333\324\277\330\363\245\277e`~\277-?SBsC\302\277\025|\273s\001\240\341\277\357\321u\3479\t\336?ae-\356\376\030\345?\361\364\363\'\276\244\341\277\225\021E\262\010\342\334\277e\216t0\006\235\357?5\032\032#\307\357\327\277\377h\3238:\252\355\277\341*\200\2003\321\340?\272I/R{\013\253\277X7\242\215\253_\342\277p\212\360Lq\023\353?\367\235v\251\014\\\337\277V\030\033\345?e\346\277-(\336\302\"/\341?^\240>\345\221v\326\277\342={\347u\002\333\277Y\025\204\277\306^\001\300\021\223\215\251O+\340\277\312\262&:70\006@b/\245\311\010\212\365\277\225/\257\010\3726\335\277\234\337\002-\237\310\374?2Y\227Z\310\334\363\277\207\233\3449O\030\334\277\247\336\312\004\016\264\372?\275\0341\232\342\261\337\277i\r\377\016\365\221\240\277\t\340\365\234\243\305\342?\204\033\326-\367H\372\277\223\306g\361\317\315\353?\001#6\225Ay\366?\334\216\017\371\365U\361?\2037`\247\344\262\341\277\025W\177\033\213\377\355\277\316\351kC\332\365\333?k\355^ \245\312\333\277\345~\031\323\314\261\320\277\374\363\260\264\374\026\000\300\325\034\236\321<\333\376?\256\335\266<\377\326\363?\267\263-l|0\333\277~\017~\026\177~\324\277\337\003\206\227UK\345?L\'\305\302\252L\354?\\\211X\315|\006\342\277\212\227\020\352(\200\346\277\316\237/l\037j\365\277\223\375\236aY\016\341?\211\021\034\\r\334\363?j\331]i\020\020\355?\303\031\223/\373Y\336\277\021\374\241\224\347\364\350\2776JL\232\352\234\323\277G\371\352E\373\215\001@e\334X\346\200\256\353\277J\2371\265,\335\357?\222V\225\021\254\r\336\277\332F\"\325\256A\354\277O\305 \203\255\033\352?6\004\310\272\026\276\341\277o\336\310\230\033$\344\277L\226\272\243\270,\361?R\265 \223y,\337\277(\361i4\232\314\356\277\005\013\331\257,\254\347?\230\252\310\367\251\275\267\277C\355\236\032\320\211\351\277\\\213V.\026\010\244\277<\235\253\324\327\357\325\277\316\334\274\214\304\024\316?nY\036\255\362\372\351?\302\245\334\217OI\342\277g\207\217t\006\261\343\277m</\325\236\301\001\300\362\216\223(\321\373\327?.\321G\225C\272\002@\337*~q\252%\355?\030\233?\316L\325\341\277M\005\321\355\240\224\347\277}<?x);\357?\240X\245\205z.\342\277\336[\331\305\266\307\351\277"
      }
    }
  }
}
node {
  name: "dnn/input_from_feature_columns/input_layer/Lambda/ExpandDims/dim"
  op: "Const"
  attr {
    key: "_output_shapes"
    value {
      list {
        shape {
        }
      }
    }
  }
  attr {
    key: "dtype"
    value {
      type: DT_INT32
    }
  }
  attr {
    key: "value"
    value {
      tensor {
        dtype: DT_INT32
        tensor_shape {
        }
        int_val: -1
      }
    }
  }
}
node {
  name: "dnn/input_from_feature_columns/input_layer/Lambda/ExpandDims"
  op: "ExpandDims"
  input: "Const"
  input: "dnn/input_from_feature_columns/input_layer/Lambda/ExpandDims/dim"
  attr {
    key: "T"
    value {
      type: DT_DOUBLE
    }
  }
  attr {
    key: "Tdim"
    value {
      type: DT_INT32
    }
  }
  attr {
    key: "_output_shapes"
    value {
      list {
        shape {
          dim {
            size: 256
          }
          dim {
            size: 1
          }
        }
      }
    }
  }
}
node {
  name: "dnn/input_from_feature_columns/input_layer/Lambda/ToFloat"
  op: "Cast"
  input: "dnn/input_from_feature_columns/input_layer/Lambda/ExpandDims"
  attr {
    key: "DstT"
    value {
      type: DT_FLOAT
    }
  }
  attr {
    key: "SrcT"
    value {
      type: DT_DOUBLE
    }
  }
  attr {
    key: "_output_shapes"
    value {
      list {
        shape {
          dim {
            size: 256
          }
          dim {
            size: 1
          }
        }
      }
    }
  }
}
node {
  name: "dnn/input_from_feature_columns/input_layer/Lambda/Shape"
  op: "Const"
  attr {
    key: "_output_shapes"
    value {
      list {
        shape {
          dim {
            size: 2
          }
        }
      }
    }
  }
  attr {
    key: "dtype"
    value {
      type: DT_INT32
    }
  }
  attr {
    key: "value"
    value {
      tensor {
        dtype: DT_INT32
        tensor_shape {
          dim {
            size: 2
          }
        }
        tensor_content: "\000\001\000\000\001\000\000\000"
      }
    }
  }
}
node {
  name: "dnn/input_from_feature_columns/input_layer/Lambda/strided_slice/stack"
  op: "Const"
  attr {
    key: "_output_shapes"
    value {
      list {
        shape {
          dim {
            size: 1
          }
        }
      }
    }
  }
  attr {
    key: "dtype"
    value {
      type: DT_INT32
    }
  }
  attr {
    key: "value"
    value {
      tensor {
        dtype: DT_INT32
        tensor_shape {
          dim {
            size: 1
          }
        }
        int_val: 0
      }
    }
  }
}
node {
  name: "dnn/input_from_feature_columns/input_layer/Lambda/strided_slice/stack_1"
  op: "Const"
  attr {
    key: "_output_shapes"
    value {
      list {
        shape {
          dim {
            size: 1
          }
        }
      }
    }
  }
  attr {
    key: "dtype"
    value {
      type: DT_INT32
    }
  }
  attr {
    key: "value"
    value {
      tensor {
        dtype: DT_INT32
        tensor_shape {
          dim {
            size: 1
          }
        }
        int_val: 1
      }
    }
  }
}
node {
  name: "dnn/input_from_feature_columns/input_layer/Lambda/strided_slice/stack_2"
  op: "Const"
  attr {
    key: "_output_shapes"
    value {
      list {
        shape {
          dim {
            size: 1
          }
        }
      }
    }
  }
  attr {
    key: "dtype"
    value {
      type: DT_INT32
    }
  }
  attr {
    key: "value"
    value {
      tensor {
        dtype: DT_INT32
        tensor_shape {
          dim {
            size: 1
          }
        }
        int_val: 1
      }
    }
  }
}
node {
  name: "dnn/input_from_feature_columns/input_layer/Lambda/strided_slice"
  op: "StridedSlice"
  input: "dnn/input_from_feature_columns/input_layer/Lambda/Shape"
  input: "dnn/input_from_feature_columns/input_layer/Lambda/strided_slice/stack"
  input: "dnn/input_from_feature_columns/input_layer/Lambda/strided_slice/stack_1"
  input: "dnn/input_from_feature_columns/input_layer/Lambda/strided_slice/stack_2"
  attr {
    key: "Index"
    value {
      type: DT_INT32
    }
  }
  attr {
    key: "T"
    value {
      type: DT_INT32
    }
  }
  attr {
    key: "_output_shapes"
    value {
      list {
        shape {
        }
      }
    }
  }
  attr {
    key: "begin_mask"
    value {
      i: 0
    }
  }
  attr {
    key: "ellipsis_mask"
    value {
      i: 0
    }
  }
  attr {
    key: "end_mask"
    value {
      i: 0
    }
  }
  attr {
    key: "new_axis_mask"
    value {
      i: 0
    }
  }
  attr {
    key: "shrink_axis_mask"
    value {
      i: 1
    }
  }
}
node {
  name: "dnn/input_from_feature_columns/input_layer/Lambda/Reshape/shape/1"
  op: "Const"
  attr {
    key: "_output_shapes"
    value {
      list {
        shape {
        }
      }
    }
  }
  attr {
    key: "dtype"
    value {
      type: DT_INT32
    }
  }
  attr {
    key: "value"
    value {
      tensor {
        dtype: DT_INT32
        tensor_shape {
        }
        int_val: 1
      }
    }
  }
}
node {
  name: "dnn/input_from_feature_columns/input_layer/Lambda/Reshape/shape"
  op: "Pack"
  input: "dnn/input_from_feature_columns/input_layer/Lambda/strided_slice"
  input: "dnn/input_from_feature_columns/input_layer/Lambda/Reshape/shape/1"
  attr {
    key: "N"
    value {
      i: 2
    }
  }
  attr {
    key: "T"
    value {
      type: DT_INT32
    }
  }
  attr {
    key: "_output_shapes"
    value {
      list {
        shape {
          dim {
            size: 2
          }
        }
      }
    }
  }
  attr {
    key: "axis"
    value {
      i: 0
    }
  }
}
node {
  name: "dnn/input_from_feature_columns/input_layer/Lambda/Reshape"
  op: "Reshape"
  input: "dnn/input_from_feature_columns/input_layer/Lambda/ToFloat"
  input: "dnn/input_from_feature_columns/input_layer/Lambda/Reshape/shape"
  attr {
    key: "T"
    value {
      type: DT_FLOAT
    }
  }
  attr {
    key: "Tshape"
    value {
      type: DT_INT32
    }
  }
  attr {
    key: "_output_shapes"
    value {
      list {
        shape {
          dim {
            size: 256
          }
          dim {
            size: 1
          }
        }
      }
    }
  }
}
node {
  name: "dnn/input_from_feature_columns/input_layer/d1/ExpandDims/dim"
  op: "Const"
  attr {
    key: "_output_shapes"
    value {
      list {
        shape {
        }
      }
    }
  }
  attr {
    key: "dtype"
    value {
      type: DT_INT32
    }
  }
  attr {
    key: "value"
    value {
      tensor {
        dtype: DT_INT32
        tensor_shape {
        }
        int_val: -1
      }
    }
  }
}
node {
  name: "dnn/input_from_feature_columns/input_layer/d1/ExpandDims"
  op: "ExpandDims"
  input: "Const_1"
  input: "dnn/input_from_feature_columns/input_layer/d1/ExpandDims/dim"
  attr {
    key: "T"
    value {
      type: DT_DOUBLE
    }
  }
  attr {
    key: "Tdim"
    value {
      type: DT_INT32
    }
  }
  attr {
    key: "_output_shapes"
    value {
      list {
        shape {
          dim {
            size: 256
          }
          dim {
            size: 1
          }
        }
      }
    }
  }
}
node {
  name: "dnn/input_from_feature_columns/input_layer/d1/ToFloat"
  op: "Cast"
  input: "dnn/input_from_feature_columns/input_layer/d1/ExpandDims"
  attr {
    key: "DstT"
    value {
      type: DT_FLOAT
    }
  }
  attr {
    key: "SrcT"
    value {
      type: DT_DOUBLE
    }
  }
  attr {
    key: "_output_shapes"
    value {
      list {
        shape {
          dim {
            size: 256
          }
          dim {
            size: 1
          }
        }
      }
    }
  }
}
node {
  name: "dnn/input_from_feature_columns/input_layer/d1/Shape"
  op: "Const"
  attr {
    key: "_output_shapes"
    value {
      list {
        shape {
          dim {
            size: 2
          }
        }
      }
    }
  }
  attr {
    key: "dtype"
    value {
      type: DT_INT32
    }
  }
  attr {
    key: "value"
    value {
      tensor {
        dtype: DT_INT32
        tensor_shape {
          dim {
            size: 2
          }
        }
        tensor_content: "\000\001\000\000\001\000\000\000"
      }
    }
  }
}
node {
  name: "dnn/input_from_feature_columns/input_layer/d1/strided_slice/stack"
  op: "Const"
  attr {
    key: "_output_shapes"
    value {
      list {
        shape {
          dim {
            size: 1
          }
        }
      }
    }
  }
  attr {
    key: "dtype"
    value {
      type: DT_INT32
    }
  }
  attr {
    key: "value"
    value {
      tensor {
        dtype: DT_INT32
        tensor_shape {
          dim {
            size: 1
          }
        }
        int_val: 0
      }
    }
  }
}
node {
  name: "dnn/input_from_feature_columns/input_layer/d1/strided_slice/stack_1"
  op: "Const"
  attr {
    key: "_output_shapes"
    value {
      list {
        shape {
          dim {
            size: 1
          }
        }
      }
    }
  }
  attr {
    key: "dtype"
    value {
      type: DT_INT32
    }
  }
  attr {
    key: "value"
    value {
      tensor {
        dtype: DT_INT32
        tensor_shape {
          dim {
            size: 1
          }
        }
        int_val: 1
      }
    }
  }
}
node {
  name: "dnn/input_from_feature_columns/input_layer/d1/strided_slice/stack_2"
  op: "Const"
  attr {
    key: "_output_shapes"
    value {
      list {
        shape {
          dim {
            size: 1
          }
        }
      }
    }
  }
  attr {
    key: "dtype"
    value {
      type: DT_INT32
    }
  }
  attr {
    key: "value"
    value {
      tensor {
        dtype: DT_INT32
        tensor_shape {
          dim {
            size: 1
          }
        }
        int_val: 1
      }
    }
  }
}
node {
  name: "dnn/input_from_feature_columns/input_layer/d1/strided_slice"
  op: "StridedSlice"
  input: "dnn/input_from_feature_columns/input_layer/d1/Shape"
  input: "dnn/input_from_feature_columns/input_layer/d1/strided_slice/stack"
  input: "dnn/input_from_feature_columns/input_layer/d1/strided_slice/stack_1"
  input: "dnn/input_from_feature_columns/input_layer/d1/strided_slice/stack_2"
  attr {
    key: "Index"
    value {
      type: DT_INT32
    }
  }
  attr {
    key: "T"
    value {
      type: DT_INT32
    }
  }
  attr {
    key: "_output_shapes"
    value {
      list {
        shape {
        }
      }
    }
  }
  attr {
    key: "begin_mask"
    value {
      i: 0
    }
  }
  attr {
    key: "ellipsis_mask"
    value {
      i: 0
    }
  }
  attr {
    key: "end_mask"
    value {
      i: 0
    }
  }
  attr {
    key: "new_axis_mask"
    value {
      i: 0
    }
  }
  attr {
    key: "shrink_axis_mask"
    value {
      i: 1
    }
  }
}
node {
  name: "dnn/input_from_feature_columns/input_layer/d1/Reshape/shape/1"
  op: "Const"
  attr {
    key: "_output_shapes"
    value {
      list {
        shape {
        }
      }
    }
  }
  attr {
    key: "dtype"
    value {
      type: DT_INT32
    }
  }
  attr {
    key: "value"
    value {
      tensor {
        dtype: DT_INT32
        tensor_shape {
        }
        int_val: 1
      }
    }
  }
}
node {
  name: "dnn/input_from_feature_columns/input_layer/d1/Reshape/shape"
  op: "Pack"
  input: "dnn/input_from_feature_columns/input_layer/d1/strided_slice"
  input: "dnn/input_from_feature_columns/input_layer/d1/Reshape/shape/1"
  attr {
    key: "N"
    value {
      i: 2
    }
  }
  attr {
    key: "T"
    value {
      type: DT_INT32
    }
  }
  attr {
    key: "_output_shapes"
    value {
      list {
        shape {
          dim {
            size: 2
          }
        }
      }
    }
  }
  attr {
    key: "axis"
    value {
      i: 0
    }
  }
}
node {
  name: "dnn/input_from_feature_columns/input_layer/d1/Reshape"
  op: "Reshape"
  input: "dnn/input_from_feature_columns/input_layer/d1/ToFloat"
  input: "dnn/input_from_feature_columns/input_layer/d1/Reshape/shape"
  attr {
    key: "T"
    value {
      type: DT_FLOAT
    }
  }
  attr {
    key: "Tshape"
    value {
      type: DT_INT32
    }
  }
  attr {
    key: "_output_shapes"
    value {
      list {
        shape {
          dim {
            size: 256
          }
          dim {
            size: 1
          }
        }
      }
    }
  }
}
node {
  name: "dnn/input_from_feature_columns/input_layer/d2/ExpandDims/dim"
  op: "Const"
  attr {
    key: "_output_shapes"
    value {
      list {
        shape {
        }
      }
    }
  }
  attr {
    key: "dtype"
    value {
      type: DT_INT32
    }
  }
  attr {
    key: "value"
    value {
      tensor {
        dtype: DT_INT32
        tensor_shape {
        }
        int_val: -1
      }
    }
  }
}
node {
  name: "dnn/input_from_feature_columns/input_layer/d2/ExpandDims"
  op: "ExpandDims"
  input: "Const_2"
  input: "dnn/input_from_feature_columns/input_layer/d2/ExpandDims/dim"
  attr {
    key: "T"
    value {
      type: DT_DOUBLE
    }
  }
  attr {
    key: "Tdim"
    value {
      type: DT_INT32
    }
  }
  attr {
    key: "_output_shapes"
    value {
      list {
        shape {
          dim {
            size: 256
          }
          dim {
            size: 1
          }
        }
      }
    }
  }
}
node {
  name: "dnn/input_from_feature_columns/input_layer/d2/ToFloat"
  op: "Cast"
  input: "dnn/input_from_feature_columns/input_layer/d2/ExpandDims"
  attr {
    key: "DstT"
    value {
      type: DT_FLOAT
    }
  }
  attr {
    key: "SrcT"
    value {
      type: DT_DOUBLE
    }
  }
  attr {
    key: "_output_shapes"
    value {
      list {
        shape {
          dim {
            size: 256
          }
          dim {
            size: 1
          }
        }
      }
    }
  }
}
node {
  name: "dnn/input_from_feature_columns/input_layer/d2/Shape"
  op: "Const"
  attr {
    key: "_output_shapes"
    value {
      list {
        shape {
          dim {
            size: 2
          }
        }
      }
    }
  }
  attr {
    key: "dtype"
    value {
      type: DT_INT32
    }
  }
  attr {
    key: "value"
    value {
      tensor {
        dtype: DT_INT32
        tensor_shape {
          dim {
            size: 2
          }
        }
        tensor_content: "\000\001\000\000\001\000\000\000"
      }
    }
  }
}
node {
  name: "dnn/input_from_feature_columns/input_layer/d2/strided_slice/stack"
  op: "Const"
  attr {
    key: "_output_shapes"
    value {
      list {
        shape {
          dim {
            size: 1
          }
        }
      }
    }
  }
  attr {
    key: "dtype"
    value {
      type: DT_INT32
    }
  }
  attr {
    key: "value"
    value {
      tensor {
        dtype: DT_INT32
        tensor_shape {
          dim {
            size: 1
          }
        }
        int_val: 0
      }
    }
  }
}
node {
  name: "dnn/input_from_feature_columns/input_layer/d2/strided_slice/stack_1"
  op: "Const"
  attr {
    key: "_output_shapes"
    value {
      list {
        shape {
          dim {
            size: 1
          }
        }
      }
    }
  }
  attr {
    key: "dtype"
    value {
      type: DT_INT32
    }
  }
  attr {
    key: "value"
    value {
      tensor {
        dtype: DT_INT32
        tensor_shape {
          dim {
            size: 1
          }
        }
        int_val: 1
      }
    }
  }
}
node {
  name: "dnn/input_from_feature_columns/input_layer/d2/strided_slice/stack_2"
  op: "Const"
  attr {
    key: "_output_shapes"
    value {
      list {
        shape {
          dim {
            size: 1
          }
        }
      }
    }
  }
  attr {
    key: "dtype"
    value {
      type: DT_INT32
    }
  }
  attr {
    key: "value"
    value {
      tensor {
        dtype: DT_INT32
        tensor_shape {
          dim {
            size: 1
          }
        }
        int_val: 1
      }
    }
  }
}
node {
  name: "dnn/input_from_feature_columns/input_layer/d2/strided_slice"
  op: "StridedSlice"
  input: "dnn/input_from_feature_columns/input_layer/d2/Shape"
  input: "dnn/input_from_feature_columns/input_layer/d2/strided_slice/stack"
  input: "dnn/input_from_feature_columns/input_layer/d2/strided_slice/stack_1"
  input: "dnn/input_from_feature_columns/input_layer/d2/strided_slice/stack_2"
  attr {
    key: "Index"
    value {
      type: DT_INT32
    }
  }
  attr {
    key: "T"
    value {
      type: DT_INT32
    }
  }
  attr {
    key: "_output_shapes"
    value {
      list {
        shape {
        }
      }
    }
  }
  attr {
    key: "begin_mask"
    value {
      i: 0
    }
  }
  attr {
    key: "ellipsis_mask"
    value {
      i: 0
    }
  }
  attr {
    key: "end_mask"
    value {
      i: 0
    }
  }
  attr {
    key: "new_axis_mask"
    value {
      i: 0
    }
  }
  attr {
    key: "shrink_axis_mask"
    value {
      i: 1
    }
  }
}
node {
  name: "dnn/input_from_feature_columns/input_layer/d2/Reshape/shape/1"
  op: "Const"
  attr {
    key: "_output_shapes"
    value {
      list {
        shape {
        }
      }
    }
  }
  attr {
    key: "dtype"
    value {
      type: DT_INT32
    }
  }
  attr {
    key: "value"
    value {
      tensor {
        dtype: DT_INT32
        tensor_shape {
        }
        int_val: 1
      }
    }
  }
}
node {
  name: "dnn/input_from_feature_columns/input_layer/d2/Reshape/shape"
  op: "Pack"
  input: "dnn/input_from_feature_columns/input_layer/d2/strided_slice"
  input: "dnn/input_from_feature_columns/input_layer/d2/Reshape/shape/1"
  attr {
    key: "N"
    value {
      i: 2
    }
  }
  attr {
    key: "T"
    value {
      type: DT_INT32
    }
  }
  attr {
    key: "_output_shapes"
    value {
      list {
        shape {
          dim {
            size: 2
          }
        }
      }
    }
  }
  attr {
    key: "axis"
    value {
      i: 0
    }
  }
}
node {
  name: "dnn/input_from_feature_columns/input_layer/d2/Reshape"
  op: "Reshape"
  input: "dnn/input_from_feature_columns/input_layer/d2/ToFloat"
  input: "dnn/input_from_feature_columns/input_layer/d2/Reshape/shape"
  attr {
    key: "T"
    value {
      type: DT_FLOAT
    }
  }
  attr {
    key: "Tshape"
    value {
      type: DT_INT32
    }
  }
  attr {
    key: "_output_shapes"
    value {
      list {
        shape {
          dim {
            size: 256
          }
          dim {
            size: 1
          }
        }
      }
    }
  }
}
node {
  name: "dnn/input_from_feature_columns/input_layer/d3/ExpandDims/dim"
  op: "Const"
  attr {
    key: "_output_shapes"
    value {
      list {
        shape {
        }
      }
    }
  }
  attr {
    key: "dtype"
    value {
      type: DT_INT32
    }
  }
  attr {
    key: "value"
    value {
      tensor {
        dtype: DT_INT32
        tensor_shape {
        }
        int_val: -1
      }
    }
  }
}
node {
  name: "dnn/input_from_feature_columns/input_layer/d3/ExpandDims"
  op: "ExpandDims"
  input: "Const_3"
  input: "dnn/input_from_feature_columns/input_layer/d3/ExpandDims/dim"
  attr {
    key: "T"
    value {
      type: DT_DOUBLE
    }
  }
  attr {
    key: "Tdim"
    value {
      type: DT_INT32
    }
  }
  attr {
    key: "_output_shapes"
    value {
      list {
        shape {
          dim {
            size: 256
          }
          dim {
            size: 1
          }
        }
      }
    }
  }
}
node {
  name: "dnn/input_from_feature_columns/input_layer/d3/ToFloat"
  op: "Cast"
  input: "dnn/input_from_feature_columns/input_layer/d3/ExpandDims"
  attr {
    key: "DstT"
    value {
      type: DT_FLOAT
    }
  }
  attr {
    key: "SrcT"
    value {
      type: DT_DOUBLE
    }
  }
  attr {
    key: "_output_shapes"
    value {
      list {
        shape {
          dim {
            size: 256
          }
          dim {
            size: 1
          }
        }
      }
    }
  }
}
node {
  name: "dnn/input_from_feature_columns/input_layer/d3/Shape"
  op: "Const"
  attr {
    key: "_output_shapes"
    value {
      list {
        shape {
          dim {
            size: 2
          }
        }
      }
    }
  }
  attr {
    key: "dtype"
